{
  "version": "1.0",
  "truncation": null,
  "padding": null,
  "added_tokens": [
    {
      "id": 0,
      "content": "<|input|>",
      "single_word": false,
      "lstrip": false,
      "rstrip": false,
      "normalized": false,
      "special": true
    },
    {
      "id": 1,
      "content": "<|output|>",
      "single_word": false,
      "lstrip": false,
      "rstrip": false,
      "normalized": false,
      "special": true
    },
    {
      "id": 2,
      "content": "<|end|>",
      "single_word": false,
      "lstrip": false,
      "rstrip": false,
      "normalized": false,
      "special": true
    },
    {
      "id": 3,
      "content": "<|pad|>",
      "single_word": false,
      "lstrip": false,
      "rstrip": false,
      "normalized": false,
      "special": true
    }
  ],
  "normalizer": null,
  "pre_tokenizer": {
    "type": "ByteLevel",
    "add_prefix_space": false,
    "trim_offsets": true,
    "use_regex": true
  },
  "post_processor": null,
  "decoder": {
    "type": "ByteLevel",
    "add_prefix_space": true,
    "trim_offsets": true,
    "use_regex": true
  },
  "model": {
    "type": "BPE",
    "dropout": null,
    "unk_token": null,
    "continuing_subword_prefix": null,
    "end_of_word_suffix": null,
    "fuse_unk": false,
    "byte_fallback": false,
    "ignore_merges": false,
    "vocab": {
      "<|input|>": 0,
      "<|output|>": 1,
      "<|end|>": 2,
      "<|pad|>": 3,
      "!": 4,
      "\"": 5,
      "#": 6,
      "$": 7,
      "%": 8,
      "&": 9,
      "'": 10,
      "(": 11,
      ")": 12,
      "*": 13,
      "+": 14,
      ",": 15,
      "-": 16,
      ".": 17,
      "/": 18,
      "0": 19,
      "1": 20,
      "2": 21,
      "3": 22,
      "4": 23,
      "5": 24,
      "6": 25,
      "7": 26,
      "8": 27,
      "9": 28,
      ":": 29,
      ";": 30,
      "<": 31,
      "=": 32,
      ">": 33,
      "?": 34,
      "@": 35,
      "A": 36,
      "B": 37,
      "C": 38,
      "D": 39,
      "E": 40,
      "F": 41,
      "G": 42,
      "H": 43,
      "I": 44,
      "J": 45,
      "K": 46,
      "L": 47,
      "M": 48,
      "N": 49,
      "O": 50,
      "P": 51,
      "Q": 52,
      "R": 53,
      "S": 54,
      "T": 55,
      "U": 56,
      "V": 57,
      "W": 58,
      "X": 59,
      "Y": 60,
      "Z": 61,
      "[": 62,
      "\\": 63,
      "]": 64,
      "^": 65,
      "_": 66,
      "a": 67,
      "b": 68,
      "c": 69,
      "d": 70,
      "e": 71,
      "f": 72,
      "g": 73,
      "h": 74,
      "i": 75,
      "j": 76,
      "k": 77,
      "l": 78,
      "m": 79,
      "n": 80,
      "o": 81,
      "p": 82,
      "q": 83,
      "r": 84,
      "s": 85,
      "t": 86,
      "u": 87,
      "v": 88,
      "w": 89,
      "x": 90,
      "y": 91,
      "z": 92,
      "{": 93,
      "|": 94,
      "}": 95,
      "~": 96,
      "¥": 97,
      "¨": 98,
      "©": 99,
      "¯": 100,
      "¶": 101,
      "¼": 102,
      "½": 103,
      "Ã": 104,
      "â": 105,
      "ã": 106,
      "ä": 107,
      "å": 108,
      "ï": 109,
      "ð": 110,
      "ĉ": 111,
      "Ċ": 112,
      "Ġ": 113,
      "Ģ": 114,
      "ģ": 115,
      "Ĥ": 116,
      "Ĩ": 117,
      "Ī": 118,
      "Ĭ": 119,
      "Ĳ": 120,
      "ĳ": 121,
      "Ķ": 122,
      "Ĺ": 123,
      "ĺ": 124,
      "ľ": 125,
      "Ł": 126,
      "ł": 127,
      "ut": 128,
      "Ġt": 129,
      "<|": 130,
      "|>": 131,
      "in": 132,
      "Ġa": 133,
      "Ġs": 134,
      "en": 135,
      "put": 136,
      "er": 137,
      "Ġ<|": 138,
      "Ġ\"": 139,
      "on": 140,
      "he": 141,
      "ti": 142,
      "Ġto": 143,
      "le": 144,
      "Ġm": 145,
      "ll": 146,
      "Ġf": 147,
      "ic": 148,
      "out": 149,
      "end": 150,
      "pl": 151,
      "output": 152,
      "it": 153,
      "ou": 154,
      "re": 155,
      "input": 156,
      "tion": 157,
      "is": 158,
      "or": 159,
      "ation": 160,
      "Ġd": 161,
      "te": 162,
      "ication": 163,
      "me": 164,
      "Ġn": 165,
      "et": 166,
      "Ġc": 167,
      "ri": 168,
      "Ġw": 169,
      "ol": 170,
      "es": 171,
      "ay": 172,
      "SS": 173,
      "PA": 174,
      "TO": 175,
      "UD": 176,
      "CL": 177,
      "OUD": 178,
      "PASS": 179,
      "CLOUD": 180,
      "Ġthe": 181,
      "Ġp": 182,
      "Ġap": 183,
      "Ġsc": 184,
      "pt": 185,
      "im": 186,
      "der": 187,
      "Ġo": 188,
      "ow": 189,
      "plication": 190,
      "Ġapplication": 191,
      "hell": 192,
      "imer": 193,
      "ript": 194,
      "Ġshell": 195,
      "ent": 196,
      "Ġscript": 197,
      "an": 198,
      "se": 199,
      "Ġof": 200,
      "Ġy": 201,
      "play": 202,
      "ing": 203,
      "Ġyou": 204,
      "Ġfor": 205,
      "Ġv": 206,
      "Ġh": 207,
      "ume": 208,
      "tif": 209,
      "ar": 210,
      "Ġte": 211,
      "olume": 212,
      "otif": 213,
      "Ġvolume": 214,
      "Timer": 215,
      "ĠPASS": 216,
      "ĠI": 217,
      "Ġdo": 218,
      "nd": 219,
      "Ġme": 220,
      "Ġb": 221,
      "ith": 222,
      "Ġwith": 223,
      "ate": 224,
      "lea": 225,
      "Ġtell": 226,
      "Ġmin": 227,
      "Ġre": 228,
      "Ġset": 229,
      "lease": 230,
      "ep": 231,
      "Ġin": 232,
      "older": 233,
      "al": 234,
      "ro": 235,
      "Ġfolder": 236,
      "Ġ1": 237,
      "do": 238,
      "ac": 239,
      "isplay": 240,
      "leep": 241,
      "otification": 242,
      "us": 243,
      "Ġminut": 244,
      "Ġon": 245,
      "to": 246,
      "tell": 247,
      "inder": 248,
      "at": 249,
      "Ġnotification": 250,
      "Ġne": 251,
      "sleep": 252,
      "Ġat": 253,
      "hed": 254,
      "Ġand": 255,
      "up": 256,
      "Ġmy": 257,
      "Ġth": 258,
      "Ġl": 259,
      "Ġtit": 260,
      "Ġtitle": 261,
      "Ġplease": 262,
      "display": 263,
      "ve": 264,
      "ld": 265,
      "00": 266,
      "gh": 267,
      "xt": 268,
      "ess": 269,
      "qu": 270,
      "ould": 271,
      "Ġe": 272,
      "Ġfin": 273,
      "ĠP": 274,
      "um": 275,
      "Ġfi": 276,
      "ents": 277,
      "ec": 278,
      "ght": 279,
      "Ġ3": 280,
      "ur": 281,
      "Ġ-": 282,
      "Ġfinis": 283,
      "Ġtimer": 284,
      "set": 285,
      "usic": 286,
      "ĠS": 287,
      "Ġfinished": 288,
      "Finder": 289,
      "de": 290,
      "Ġqu": 291,
      "top": 292,
      "oc": 293,
      "ad": 294,
      "Ġminute": 295,
      "st": 296,
      "ĠD": 297,
      "om": 298,
      "ed": 299,
      "own": 300,
      "esk": 301,
      "Ġ2": 302,
      "day": 303,
      "ome": 304,
      "esktop": 305,
      "ho": 306,
      "ĠM": 307,
      "pen": 308,
      "ame": 309,
      "ĠC": 310,
      "ack": 311,
      "il": 312,
      "right": 313,
      "Ġup": 314,
      "ke": 315,
      "Ġfile": 316,
      "Ġplay": 317,
      "Ġtr": 318,
      "our": 319,
      "uments": 320,
      "ist": 321,
      "art": 322,
      "Ġcan": 323,
      "ocuments": 324,
      "Music": 325,
      "Ġst": 326,
      "Ġmo": 327,
      "'s": 328,
      "ch": 329,
      "Ġhome": 330,
      "ys": 331,
      "Ġg": 332,
      "Ġit": 333,
      "Ġac": 334,
      "Ġquit": 335,
      "Ġthis": 336,
      "ort": 337,
      "Ġoutput": 338,
      "tiv": 339,
      "ĠA": 340,
      "Ġhour": 341,
      "ag": 342,
      "ime": 343,
      "Ġ30": 344,
      "ork": 345,
      "tem": 346,
      "Ġ4": 347,
      "ystem": 348,
      "ft": 349,
      "Ġopen": 350,
      "tivate": 351,
      "Ġminutes": 352,
      "Ġnext": 353,
      "Ġactivate": 354,
      "Ġwh": 355,
      "min": 356,
      "as": 357,
      "Ġneed": 358,
      "Ġ'": 359,
      "ce": 360,
      "lo": 361,
      "Ġnow": 362,
      "Ġsh": 363,
      "am": 364,
      "ick": 365,
      "un": 366,
      "ote": 367,
      "Ġ9": 368,
      "all": 369,
      "Ġpro": 370,
      "ness": 371,
      "ect": 372,
      "rightness": 373,
      "cent": 374,
      "otify": 375,
      "ant": 376,
      "dd": 377,
      "reate": 378,
      "vi": 379,
      "ail": 380,
      "Ġan": 381,
      "row": 382,
      "th": 383,
      "mor": 384,
      "Ġis": 385,
      "potify": 386,
      "ĠT": 387,
      "Ġper": 388,
      "port": 389,
      "minder": 390,
      "ject": 391,
      "ir": 392,
      "Ġ5": 393,
      "nt": 394,
      "ake": 395,
      "ble": 396,
      "Ġapp": 397,
      "morrow": 398,
      "Ġtomorrow": 399,
      "oo": 400,
      "Ġstart": 401,
      "ĠE": 402,
      "Time": 403,
      "urn": 404,
      "ver": 405,
      "reen": 406,
      "ound": 407,
      "Ġdesktop": 408,
      "ount": 409,
      "Ġwant": 410,
      "res": 411,
      "Ġname": 412,
      "Ġcon": 413,
      "Documents": 414,
      "Ġpercent": 415,
      "urr": 416,
      "Ġen": 417,
      "Ġhe": 418,
      "ĠF": 419,
      "'m": 420,
      "Ġab": 421,
      "ue": 422,
      "ly": 423,
      "mind": 424,
      "ee": 425,
      "Ġabout": 426,
      "ĠW": 427,
      "urrent": 428,
      "Ġ(": 429,
      "au": 430,
      "ck": 431,
      "ew": 432,
      "\\\"": 433,
      "ond": 434,
      "ark": 435,
      "Ġoff": 436,
      "Ġcould": 437,
      "rom": 438,
      "ple": 439,
      "ip": 440,
      "Ġcal": 441,
      "Ġcom": 442,
      "Ġsec": 443,
      "hedu": 444,
      "able": 445,
      "Ġfrom": 446,
      "ower": 447,
      "hedule": 448,
      "Ġ7": 449,
      "heck": 450,
      "si": 451,
      "Ġ~": 452,
      "age": 453,
      "Ġtrack": 454,
      "ads": 455,
      "Ġ~/": 456,
      "System": 457,
      "Ġ10": 458,
      "ff": 459,
      "please": 460,
      "Ġem": 461,
      "Ġsecond": 462,
      "ĠPM": 463,
      "ownlo": 464,
      "Ġmode": 465,
      "ite": 466,
      "led": 467,
      "etw": 468,
      "Ġ15": 469,
      "ĠDocuments": 470,
      "ning": 471,
      "otes": 472,
      "ct": 473,
      "Ġ8": 474,
      "Ġcurrent": 475,
      "list": 476,
      "down": 477,
      "vents": 478,
      "if": 479,
      "Ġr": 480,
      "ountdown": 481,
      "20": 482,
      "ownloads": 483,
      "ĠMon": 484,
      "eting": 485,
      "roject": 486,
      "Ġcheck": 487,
      "Ġreminder": 488,
      "Ġnew": 489,
      "Ġ6": 490,
      "Ġsound": 491,
      "ĠEvents": 492,
      "etwork": 493,
      "hat": 494,
      "brightness": 495,
      "Ġmac": 496,
      "Ġpre": 497,
      "Ġemail": 498,
      "Ġdark": 499,
      "em": 500,
      "Ġ0": 501,
      "ight": 502,
      "ile": 503,
      "30": 504,
      "Ġall": 505,
      "Ġso": 506,
      "ave": 507,
      "Ġ45": 508,
      "view": 509,
      "ong": 510,
      "Ġcall": 511,
      "Ġdown": 512,
      "ill": 513,
      "ain": 514,
      "Ġmusic": 515,
      "fter": 516,
      "Ġscreen": 517,
      "com": 518,
      "Ġ{": 519,
      "Ġafter": 520,
      "name": 521,
      "Ġbe": 522,
      "txt": 523,
      "Ġno": 524,
      "can": 525,
      "Ġthat": 526,
      "ter": 527,
      "ap": 528,
      "chedule": 529,
      "ĠR": 530,
      "Ġdisplay": 531,
      "Ġplaylist": 532,
      "Ġget": 533,
      "df": 534,
      "Ġcalled": 535,
      "Ġmess": 536,
      "pe": 537,
      "very": 538,
      "ĠDesktop": 539,
      "Ġquick": 540,
      "eek": 541,
      "ine": 542,
      "Ġday": 543,
      "sho": 544,
      "ure": 545,
      "hoto": 546,
      "could": 547,
      "Ġsend": 548,
      "ause": 549,
      "and": 550,
      "ud": 551,
      "Ġcountdown": 552,
      "Spotify": 553,
      "Ġdon": 554,
      "Ġk": 555,
      "Ġwould": 556,
      "Ġ20": 557,
      "ĠMonday": 558,
      "fer": 559,
      "ĠAM": 560,
      "fo": 561,
      "get": 562,
      "Ġweek": 563,
      "li": 564,
      "Ġright": 565,
      "uff": 566,
      "Ġus": 567,
      "ance": 568,
      "Ġtrue": 569,
      "Ġlist": 570,
      "Ġremind": 571,
      "Ġturn": 572,
      "ĠSpotify": 573,
      "ty": 574,
      "ers": 575,
      "Ġadd": 576,
      "rite": 577,
      "Ġbrightness": 578,
      "Ġmake": 579,
      "ages": 580,
      "feren": 581,
      "Ġwork": 582,
      "ont": 583,
      "Ġ|": 584,
      "Ġar": 585,
      "Ġcont": 586,
      "Ġ90": 587,
      "Ġshuff": 588,
      "network": 589,
      "pdf": 590,
      "Ġmove": 591,
      "int": 592,
      "ces": 593,
      "Ġare": 594,
      "power": 595,
      "Ġsong": 596,
      "Ġfal": 597,
      "Ġfalse": 598,
      "Desktop": 599,
      "Qu": 600,
      "Ġmeeting": 601,
      "ode": 602,
      "Ġtoday": 603,
      "Ġas": 604,
      "Ġwhile": 605,
      "Ġmessage": 606,
      "Ġde": 607,
      "ze": 608,
      "Ġevery": 609,
      "Ġwhat": 610,
      "ear": 611,
      "ig": 612,
      "ost": 613,
      "cess": 614,
      "ront": 615,
      "ide": 616,
      "Ġshuffle": 617,
      "Ġfront": 618,
      "riday": 619,
      "ĠFriday": 620,
      "ert": 621,
      "ĠN": 622,
      "ari": 623,
      "ĠH": 624,
      "unch": 625,
      "Project": 626,
      "Ġtw": 627,
      "ferences": 628,
      "how": 629,
      "15": 630,
      "setup": 631,
      "ĠB": 632,
      "Ġ\\\"": 633,
      "ire": 634,
      "ĠFinder": 635,
      "ra": 636,
      "Ġdis": 637,
      "ute": 638,
      "Ġpause": 639,
      "sc": 640,
      "turn": 641,
      "'t": 642,
      "ive": 643,
      "Ġshow": 644,
      "Ġhave": 645,
      "Ġex": 646,
      "Quick": 647,
      "Ġ12": 648,
      "pm": 649,
      "ict": 650,
      "Ġinto": 651,
      "Ġenable": 652,
      "Ġla": 653,
      "air": 654,
      "Ġback": 655,
      "zip": 656,
      "Ġch": 657,
      "Ġtime": 658,
      "Ġgo": 659,
      "Ġprocess": 660,
      "Ġse": 661,
      "Ġ60": 662,
      "lose": 663,
      "ures": 664,
      "Create": 665,
      "ĠCreate": 666,
      "lp": 667,
      "networksetup": 668,
      "Ġsome": 669,
      "would": 670,
      "Ġreport": 671,
      "Ġpl": 672,
      "sion": 673,
      "Downloads": 674,
      "ks": 675,
      "ĠMac": 676,
      "Ġ50": 677,
      "ard": 678,
      "ind": 679,
      "ting": 680,
      "lu": 681,
      "tist": 682,
      "are": 683,
      "\";": 684,
      "Ġfiles": 685,
      "QuickTime": 686,
      "Ġhours": 687,
      "eminder": 688,
      "shot": 689,
      "peat": 690,
      "ictures": 691,
      "45": 692,
      "Ġ/": 693,
      "enty": 694,
      "Ġwho": 695,
      "Ġsystem": 696,
      "remind": 697,
      "Ġle": 698,
      "ĠPl": 699,
      "ice": 700,
      "Ġi": 701,
      "Ġwrite": 702,
      "du": 703,
      "yn": 704,
      "ment": 705,
      "Ġnoon": 706,
      "ook": 707,
      "Ġusing": 708,
      "airport": 709,
      "Ġtext": 710,
      "op": 711,
      "Ġdoc": 712,
      "orning": 713,
      "raft": 714,
      "100": 715,
      "apt": 716,
      "ĠDownloads": 717,
      "resent": 718,
      "ash": 719,
      "ous": 720,
      "Ġone": 721,
      "date": 722,
      "Ġrepeat": 723,
      "og": 724,
      "ang": 725,
      "screen": 726,
      "lt": 727,
      "lert": 728,
      "ample": 729,
      "400": 730,
      "ity": 731,
      "upl": 732,
      "util": 733,
      "ties": 734,
      "ted": 735,
      "Ġnotes": 736,
      "Ġli": 737,
      "Ġput": 738,
      "puter": 739,
      "icate": 740,
      "start": 741,
      "hotos": 742,
      "fore": 743,
      "ument": 744,
      "Ġseconds": 745,
      "resentation": 746,
      "Ġsu": 747,
      "endar": 748,
      "Ġthir": 749,
      "Ġrun": 750,
      "ĠO": 751,
      "Ġdocument": 752,
      "ock": 753,
      "ex": 754,
      "Ġmorning": 755,
      "Ġcreate": 756,
      "veal": 757,
      "uplicate": 758,
      "Ġbat": 759,
      "ackup": 760,
      "apture": 761,
      "ĠSchedule": 762,
      "Ġcomputer": 763,
      "ord": 764,
      "Ġfive": 765,
      "Ġhey": 766,
      "Ġun": 767,
      "Schedule": 768,
      "Ġ--": 769,
      "Ġappear": 770,
      "ove": 771,
      "per": 772,
      "Ġsleep": 773,
      "Ġappearance": 774,
      "ul": 775,
      "vious": 776,
      "Ġnamed": 777,
      "Ġthirty": 778,
      "Ġhow": 779,
      "Ġ70": 780,
      "Ġ100": 781,
      "Ġtas": 782,
      "ĠCh": 783,
      "illall": 784,
      "Ġif": 785,
      "Ġj": 786,
      "ot": 787,
      "ooth": 788,
      "oint": 789,
      "Ġbefore": 790,
      "dit": 791,
      "ace": 792,
      "hey": 793,
      "etooth": 794,
      "luetooth": 795,
      "ls": 796,
      "example": 797,
      "ss": 798,
      "ring": 799,
      "ary": 800,
      "Ġ40": 801,
      "af": 802,
      "itch": 803,
      "Ġaw": 804,
      "add": 805,
      "ĠG": 806,
      "ĠAdd": 807,
      "ĠPlay": 808,
      "Ġdone": 809,
      "Add": 810,
      "Ġprevious": 811,
      "Ġwhose": 812,
      "bo": 813,
      "80": 814,
      "Ġsay": 815,
      "Ġread": 816,
      "io": 817,
      "Ġnote": 818,
      "Ġdate": 819,
      "est": 820,
      "id": 821,
      "Ġmach": 822,
      "Ġinter": 823,
      "Reminder": 824,
      "ion": 825,
      "po": 826,
      "ven": 827,
      "Ġduplicate": 828,
      "Ġtake": 829,
      "Ġor": 830,
      "ault": 831,
      "ner": 832,
      "ĠPlayer": 833,
      "no": 834,
      "Ġproper": 835,
      "Ġby": 836,
      "Ġhead": 837,
      "Ġstop": 838,
      "Ġmind": 839,
      "ng": 840,
      "Ġenabled": 841,
      "Ġreview": 842,
      "pg": 843,
      "witch": 844,
      "plain": 845,
      "lient": 846,
      "Ġlike": 847,
      "ĠJ": 848,
      "key": 849,
      "Ġclose": 850,
      "Ġmut": 851,
      "Ġproperties": 852,
      "\"}": 853,
      "Ġsub": 854,
      ")\"": 855,
      "lue": 856,
      "capture": 857,
      "open": 858,
      "Ġthan": 859,
      "jpg": 860,
      "alf": 861,
      "Ġmuted": 862,
      "Ġpreferences": 863,
      "afari": 864,
      "ĠPre": 865,
      ":\"": 866,
      "Ġmom": 867,
      "udio": 868,
      "ĠSet": 869,
      "Ġchang": 870,
      "esday": 871,
      "noon": 872,
      "800": 873,
      "ĠL": 874,
      "Ġlate": 875,
      "Set": 876,
      "fault": 877,
      "duct": 878,
      "airportpower": 879,
      "lueutil": 880,
      "pro": 881,
      "'\"": 882,
      "ĠProject": 883,
      "Ġafternoon": 884,
      "Ġim": 885,
      "opy": 886,
      "rea": 887,
      "umb": 888,
      "Ġhalf": 889,
      "ree": 890,
      "indow": 891,
      "Ġdisk": 892,
      "Ġcurrently": 893,
      "Ġrunning": 894,
      "Ġplan": 895,
      "one": 896,
      "Ġ120": 897,
      "Ġitem": 898,
      "rch": 899,
      "Ġout": 900,
      "blueutil": 901,
      "Ġsi": 902,
      "ersion": 903,
      "Ġahe": 904,
      "Ġpresentation": 905,
      "Ġbo": 906,
      "Ġproject": 907,
      "Ġahead": 908,
      "ession": 909,
      "Ġreveal": 910,
      "ifi": 911,
      "side": 912,
      "pp": 913,
      "Ġtwo": 914,
      "Ġwindow": 915,
      "ĠTe": 916,
      "gle": 917,
      "king": 918,
      "Ġsp": 919,
      "Ġinv": 920,
      "report": 921,
      "Ġinside": 922,
      "Projects": 923,
      "ĠSt": 924,
      "cul": 925,
      "Ġhelp": 926,
      "thing": 927,
      "ĠWhat": 928,
      "Ġ25": 929,
      "Ġschedule": 930,
      "Ġdraft": 931,
      "What": 932,
      "emo": 933,
      "tery": 934,
      "Ġres": 935,
      "Ġnetwork": 936,
      "rome": 937,
      "mer": 938,
      "now": 939,
      "isc": 940,
      "Ġreturn": 941,
      "entist": 942,
      "Ġforty": 943,
      "setairportpower": 944,
      "shop": 945,
      "Ġwifi": 946,
      "Ġswitch": 947,
      "png": 948,
      "Ġtitled": 949,
      "screencapture": 950,
      "pplication": 951,
      "Ġcalendar": 952,
      "Ġplaying": 953,
      "ctl": 954,
      "br": 955,
      "lack": 956,
      "Ġteam": 957,
      "Ġshort": 958,
      "time": 959,
      "Ġ900": 960,
      "code": 961,
      "Ġste": 962,
      "inner": 963,
      "Ġco": 964,
      "Ġ35": 965,
      "pr": 966,
      "Ġscreenshot": 967,
      "apple": 968,
      "ĠChrome": 969,
      "faults": 970,
      "gr": 971,
      "Ġsave": 972,
      "Ġ11": 973,
      "pplications": 974,
      "Ġmachine": 975,
      "Ġ+": 976,
      "ĠCode": 977,
      "pose": 978,
      "Ġbu": 979,
      "Ġtrash": 980,
      "ial": 981,
      "most": 982,
      "ermin": 983,
      "fig": 984,
      "ync": 985,
      "erminal": 986,
      "Pictures": 987,
      "Xcode": 988,
      "Ġpick": 989,
      "Ġsetting": 990,
      "Ġcontr": 991,
      "Ġdentist": 992,
      "ysctl": 993,
      "ĠTr": 994,
      "Ġchange": 995,
      "ction": 996,
      "ich": 997,
      "Ġ80": 998,
      "Ġtwenty": 999,
      "Ġlaunch": 1000,
      "sysctl": 1001,
      "ointment": 1002,
      "show": 1003,
      "Ġlock": 1004,
      "urb": 1005,
      "Ġknow": 1006,
      "read": 1007,
      "!\"": 1008,
      "itor": 1009,
      "Ġdemo": 1010,
      "mand": 1011,
      "umm": 1012,
      "isturb": 1013,
      "Ġfrontmost": 1014,
      "Ġbit": 1015,
      "Ġ55": 1016,
      "Ġany": 1017,
      "Ġnot": 1018,
      "Ġcl": 1019,
      "oice": 1020,
      "Ġbattery": 1021,
      "current": 1022,
      "tivity": 1023,
      "ere": 1024,
      "Ġ5400": 1025,
      "Ġman": 1026,
      "Ġsaying": 1027,
      "Ġwhen": 1028,
      "notes": 1029,
      "Ġappointment": 1030,
      "la": 1031,
      "Ġ$": 1032,
      "Ġalert": 1033,
      "Ġsev": 1034,
      "old": 1035,
      "Ġinc": 1036,
      "Ġseventy": 1037,
      "ps": 1038,
      "Ġton": 1039,
      "minute": 1040,
      "Ġtonight": 1041,
      "Ġfo": 1042,
      "sed": 1043,
      "OS": 1044,
      "ull": 1045,
      "tic": 1046,
      "Fi": 1047,
      "ies": 1048,
      "doc": 1049,
      "what": 1050,
      "ĠCal": 1051,
      "Ġbluetooth": 1052,
      "ater": 1053,
      "Ġaround": 1054,
      "iscord": 1055,
      "Ġsession": 1056,
      "ĠWi": 1057,
      "andup": 1058,
      "for": 1059,
      "ust": 1060,
      "print": 1061,
      "arch": 1062,
      "ctivity": 1063,
      "tive": 1064,
      "ator": 1065,
      "ress": 1066,
      "umbers": 1067,
      "rchive": 1068,
      "con": 1069,
      "llow": 1070,
      "Ġ300": 1071,
      "pmset": 1072,
      "killall": 1073,
      "Ġmon": 1074,
      "Ġtask": 1075,
      "erm": 1076,
      "Ġconn": 1077,
      "ĠMonitor": 1078,
      "udget": 1079,
      "fox": 1080,
      "Ġartist": 1081,
      "irefox": 1082,
      "send": 1083,
      "ĠĠ": 1084,
      "ise": 1085,
      "Ġhi": 1086,
      "inal": 1087,
      "Ġlong": 1088,
      "defaults": 1089,
      "Ġcontent": 1090,
      "Ġthanks": 1091,
      "Ġmoment": 1092,
      "eeting": 1093,
      "lean": 1094,
      "Ġpo": 1095,
      "essages": 1096,
      "vers": 1097,
      "oogle": 1098,
      "ynote": 1099,
      "Ġitems": 1100,
      "Ġcontrol": 1101,
      "ĠV": 1102,
      "Us": 1103,
      "stro": 1104,
      "ctor": 1105,
      "Open": 1106,
      "Ġdinner": 1107,
      "ata": 1108,
      "Ġupdate": 1109,
      "command": 1110,
      "ĠOpen": 1111,
      "keystro": 1112,
      "keystroke": 1113,
      "Alert": 1114,
      "kip": 1115,
      "Ġclient": 1116,
      "quit": 1117,
      "Ke": 1118,
      "Ġ36": 1119,
      "Ġinterview": 1120,
      "Edit": 1121,
      "be": 1122,
      "Ġ&": 1123,
      "culator": 1124,
      "av": 1125,
      "go": 1126,
      "line": 1127,
      "uch": 1128,
      "docx": 1129,
      "Keynote": 1130,
      ".\"": 1131,
      "ual": 1132,
      "ĠPictures": 1133,
      "ĠPreferences": 1134,
      "ware": 1135,
      "teen": 1136,
      "Ġext": 1137,
      "ĠNotes": 1138,
      "Photos": 1139,
      "Ġlea": 1140,
      "ffee": 1141,
      "ideo": 1142,
      "Ġvideo": 1143,
      "ĠMusic": 1144,
      "Ġstartup": 1145,
      "Ġreminders": 1146,
      "ale": 1147,
      "rip": 1148,
      "xtEdit": 1149,
      "ther": 1150,
      "Ġbright": 1151,
      "timer": 1152,
      "Ġdisable": 1153,
      "ence": 1154,
      "Ġasking": 1155,
      "xplain": 1156,
      "Ġwe": 1157,
      "system": 1158,
      "'ll": 1159,
      "Ġrec": 1160,
      "Ġaway": 1161,
      "Ġmonth": 1162,
      "mo": 1163,
      "ename": 1164,
      "Ġfift": 1165,
      "Ġstandup": 1166,
      "Ġfifty": 1167,
      "Te": 1168,
      "Ġend": 1169,
      "Ġsee": 1170,
      "board": 1171,
      "Ġfollow": 1172,
      "cp": 1173,
      "ices": 1174,
      "Ġway": 1175,
      "atus": 1176,
      "Ġmessages": 1177,
      "ign": 1178,
      "Ġmuch": 1179,
      "Ġawk": 1180,
      "ype": 1181,
      "Ġwithout": 1182,
      "eport": 1183,
      "Ġsync": 1184,
      "Host": 1185,
      "Ġreal": 1186,
      "Ġlog": 1187,
      "Ġ75": 1188,
      "Ġkillall": 1189,
      "Ġtasks": 1190,
      "Users": 1191,
      "back": 1192,
      "ĠWed": 1193,
      "nesday": 1194,
      "lect": 1195,
      "Ġpay": 1196,
      "Ġthen": 1197,
      "Ġthree": 1198,
      "ĠWednesday": 1199,
      "ĠRe": 1200,
      "Ġcount": 1201,
      "ans": 1202,
      "Ġ1800": 1203,
      "ĠPhotos": 1204,
      "Ġfir": 1205,
      "pty": 1206,
      "thday": 1207,
      "irthday": 1208,
      "Ġbuy": 1209,
      "config": 1210,
      "Show": 1211,
      "ry": 1212,
      "Ġmail": 1213,
      "Ġlower": 1214,
      "iler": 1215,
      "ĠTh": 1216,
      "Ġcoffee": 1217,
      "ui": 1218,
      "ĠHe": 1219,
      "Ġmark": 1220,
      "Ġvis": 1221,
      "act": 1222,
      "Ġmod": 1223,
      "Ġsubject": 1224,
      "Ġ3600": 1225,
      "Backup": 1226,
      "vent": 1227,
      "Ġfirst": 1228,
      "search": 1229,
      "Ġforce": 1230,
      "Ġjo": 1231,
      "every": 1232,
      "Ġtoo": 1233,
      "Ġlunch": 1234,
      "Ġbring": 1235,
      "12": 1236,
      "ĠQuickTime": 1237,
      "He": 1238,
      "Safari": 1239,
      "filer": 1240,
      "isual": 1241,
      "ath": 1242,
      "ĠStudio": 1243,
      "Pre": 1244,
      "Ġbirthday": 1245,
      "Ġevent": 1246,
      "Ġstatus": 1247,
      "vie": 1248,
      "Ġbatt": 1249,
      "Ġsize": 1250,
      "ummari": 1251,
      "Ġwhich": 1252,
      "Ch": 1253,
      "}'\"": 1254,
      "Ġpart": 1255,
      "Ġlight": 1256,
      "Ġuser": 1257,
      "Ġsomething": 1258,
      "sw": 1259,
      "Ġro": 1260,
      "Ġproduct": 1261,
      "Ġvisi": 1262,
      "\")": 1263,
      "'d": 1264,
      "PU": 1265,
      "urs": 1266,
      "ground": 1267,
      "60": 1268,
      "Ġaudio": 1269,
      "Ġapps": 1270,
      "40": 1271,
      "ough": 1272,
      "ĠPro": 1273,
      "Cal": 1274,
      "Ġmute": 1275,
      "screenshot": 1276,
      "brary": 1277,
      "Ġsettings": 1278,
      "ursday": 1279,
      "ĠHow": 1280,
      "Data": 1281,
      "ĠU": 1282,
      "lete": 1283,
      "Ġmany": 1284,
      "ĠThursday": 1285,
      "How": 1286,
      "Name": 1287,
      "sh": 1288,
      "Ġdial": 1289,
      "Ġ1500": 1290,
      "mp": 1291,
      "mute": 1292,
      "Ġal": 1293,
      "Ġcopy": 1294,
      "late": 1295,
      "uesday": 1296,
      "Ġversion": 1297,
      "ĠTuesday": 1298,
      "iles": 1299,
      "Type": 1300,
      "pare": 1301,
      "xls": 1302,
      "ension": 1303,
      "ical": 1304,
      "ara": 1305,
      "ros": 1306,
      "Ġmovie": 1307,
      "Ġlast": 1308,
      "DataType": 1309,
      "ĠTrash": 1310,
      "Work": 1311,
      "night": 1312,
      "Ġhide": 1313,
      "Ġworkshop": 1314,
      "profiler": 1315,
      "rease": 1316,
      "Ġvisible": 1317,
      "who": 1318,
      "Ġfoc": 1319,
      "Ġcomple": 1320,
      "ĠProjects": 1321,
      "Ġextension": 1322,
      "90": 1323,
      "Disturb": 1324,
      "Not": 1325,
      "notification": 1326,
      "erui": 1327,
      "ĠdoNot": 1328,
      "Ġloc": 1329,
      "Ġeight": 1330,
      "centerui": 1331,
      "ification": 1332,
      "notificationcenterui": 1333,
      "ĠdoNotDisturb": 1334,
      "ĠIP": 1335,
      "ĠMessages": 1336,
      "Ġ'/": 1337,
      "eports": 1338,
      "Ġdialog": 1339,
      "gg": 1340,
      "site": 1341,
      "ĠXcode": 1342,
      "Ġlet": 1343,
      "aceTime": 1344,
      "currentHost": 1345,
      "xlsx": 1346,
      "Applications": 1347,
      "oft": 1348,
      "ach": 1349,
      "Ġmodification": 1350,
      "Ġinst": 1351,
      "Ġhw": 1352,
      "Ġonly": 1353,
      "Version": 1354,
      "oad": 1355,
      "ĠSara": 1356,
      "ĠCPU": 1357,
      "Ġkid": 1358,
      "ummarize": 1359,
      "Ġexplain": 1360,
      "300": 1361,
      "create": 1362,
      "Ġher": 1363,
      "alert": 1364,
      "ĠSP": 1365,
      "Ġcompose": 1366,
      "Ġaddress": 1367,
      "Ġkids": 1368,
      "Ġam": 1369,
      "Ġphoto": 1370,
      "anslate": 1371,
      "ĠSarah": 1372,
      "Ġconnec": 1373,
      "ak": 1374,
      "Ġfri": 1375,
      "ank": 1376,
      "ĠBluetooth": 1377,
      "ĠPlease": 1378,
      "700": 1379,
      "backup": 1380,
      "Ġag": 1381,
      "esign": 1382,
      "Ġbill": 1383,
      "ĠSlack": 1384,
      "pping": 1385,
      "cpu": 1386,
      "Archive": 1387,
      "Ġchat": 1388,
      "ĠMeeting": 1389,
      "ilk": 1390,
      "Ġbackground": 1391,
      "10": 1392,
      "Please": 1393,
      "26": 1394,
      "Ġstarting": 1395,
      "Ġinvoice": 1396,
      "123": 1397,
      "ab": 1398,
      "hn": 1399,
      "mit": 1400,
      "Ġfree": 1401,
      "ory": 1402,
      "idnight": 1403,
      "etif": 1404,
      "heet": 1405,
      "Ġdoctor": 1406,
      "ĠMail": 1407,
      "Ġgetif": 1408,
      "ipconfig": 1409,
      "addr": 1410,
      "Ġspace": 1411,
      "Ġgetifaddr": 1412,
      "ĠSafari": 1413,
      "airportnetwork": 1414,
      "Ġjust": 1415,
      "Move": 1416,
      "Slack": 1417,
      "cer": 1418,
      "dy": 1419,
      "Ġali": 1420,
      "Ġthem": 1421,
      "ĠMove": 1422,
      "ĠCan": 1423,
      "Ġempty": 1424,
      "ĠReminder": 1425,
      "vening": 1426,
      "25": 1427,
      "Re": 1428,
      "Notes": 1429,
      "boo": 1430,
      "Ġsim": 1431,
      "Ġpri": 1432,
      "Ġmed": 1433,
      "ass": 1434,
      "getairportnetwork": 1435,
      "gan": 1436,
      "Ġskip": 1437,
      "Ġmilk": 1438,
      "Ġdim": 1439,
      "rocer": 1440,
      "ĠDiscord": 1441,
      "Ġresume": 1442,
      "ma": 1443,
      "67": 1444,
      "Terminal": 1445,
      "dden": 1446,
      "udy": 1447,
      "Ġ/\"": 1448,
      "Ġover": 1449,
      "Ġ2100": 1450,
      "aps": 1451,
      "ĠTeam": 1452,
      "Ġalias": 1453,
      "Ġav": 1454,
      "75": 1455,
      "Ġmidnight": 1456,
      "reak": 1457,
      "Book": 1458,
      "ibrary": 1459,
      "tore": 1460,
      "Ġplayback": 1461,
      "ĠTerminal": 1462,
      "Ġ85": 1463,
      "Ġgoing": 1464,
      "Ġprocesses": 1465,
      "Ġhidden": 1466,
      "Ġfind": 1467,
      "200": 1468,
      "count": 1469,
      "nal": 1470,
      "tle": 1471,
      "Ġdire": 1472,
      "uptime": 1473,
      "Ġedit": 1474,
      "Ġhear": 1475,
      "Ġ65": 1476,
      "ĠBook": 1477,
      "Ġ1200": 1478,
      "Ġsubmit": 1479,
      "photo": 1480,
      "Ġkeystroke": 1481,
      "mem": 1482,
      "Ġ95": 1483,
      "Can": 1484,
      "ric": 1485,
      "reads": 1486,
      "Ġatt": 1487,
      "ĠSystem": 1488,
      "ami": 1489,
      "ailable": 1490,
      "Ġ600": 1491,
      "Ġstep": 1492,
      "Chill": 1493,
      "ish": 1494,
      "Ġfinish": 1495,
      "Ġquickly": 1496,
      "fir": 1497,
      "hone": 1498,
      "Ġfour": 1499,
      "Ġevening": 1500,
      "Ġ10800": 1501,
      "ardware": 1502,
      "ĠmacOS": 1503,
      "ize": 1504,
      "lock": 1505,
      "ves": 1506,
      "ĠPreview": 1507,
      "Preview": 1508,
      "whoami": 1509,
      "el": 1510,
      "light": 1511,
      "und": 1512,
      "Ġ>": 1513,
      "imate": 1514,
      "Ġ14": 1515,
      "Ġ2700": 1516,
      "keep": 1517,
      "Ġtry": 1518,
      "ĠApplications": 1519,
      "product": 1520,
      "ĠCalendar": 1521,
      "earch": 1522,
      "In": 1523,
      "vel": 1524,
      "ĠFirefox": 1525,
      "Ġworkout": 1526,
      "Ġunmute": 1527,
      "Ġfriend": 1528,
      "readsheet": 1529,
      "productVersion": 1530,
      "Ġbec": 1531,
      "arter": 1532,
      "ĠActivity": 1533,
      "Ġbeg": 1534,
      "Google": 1535,
      "countdown": 1536,
      "iet": 1537,
      "ling": 1538,
      "icros": 1539,
      "Ġbr": 1540,
      "Ġbreak": 1541,
      "Ġrecent": 1542,
      "stname": 1543,
      "hostname": 1544,
      "Ġunread": 1545,
      "ales": 1546,
      "icrosoft": 1547,
      "Volume": 1548,
      "Library": 1549,
      "Pages": 1550,
      "oom": 1551,
      "ux": 1552,
      "Ġad": 1553,
      "Ġaux": 1554,
      "Ġwater": 1555,
      "Ġbudget": 1556,
      "ants": 1557,
      "Ġbackup": 1558,
      "Ġbody": 1559,
      "boolean": 1560,
      "Ġsimple": 1561,
      "List": 1562,
      "ĠKeynote": 1563,
      "Ġfif": 1564,
      "Ġgrocer": 1565,
      "ĠBackup": 1566,
      "ĠChill": 1567,
      "Ġavailable": 1568,
      "Files": 1569,
      "Visual": 1570,
      "gy": 1571,
      "rate": 1572,
      "ving": 1573,
      "Ġdet": 1574,
      "Ġ3300": 1575,
      "ĠFaceTime": 1576,
      "Ġfifteen": 1577,
      "Activity": 1578,
      "IX": 1579,
      "Old": 1580,
      "Ġfun": 1581,
      "rive": 1582,
      "enter": 1583,
      "alled": 1584,
      "ded": 1585,
      "emp": 1586,
      "aining": 1587,
      "Ġsongs": 1588,
      "Ġplants": 1589,
      "OSIX": 1590,
      "text": 1591,
      "Ġinstalled": 1592,
      "DF": 1593,
      "Firefox": 1594,
      "Ġpower": 1595,
      "Ġresearch": 1596,
      "Ġ18": 1597,
      "log": 1598,
      "Ġshould": 1599,
      "Ġdelete": 1600,
      "Ġclimate": 1601,
      "ĠReminders": 1602,
      "Ġbecause": 1603,
      "Ġclean": 1604,
      "Ġra": 1605,
      "force": 1606,
      "di": 1607,
      "pple": 1608,
      "size": 1609,
      "Ġartic": 1610,
      "Ġdev": 1611,
      "Ġorgan": 1612,
      "ĠTextEdit": 1613,
      "Ġarticle": 1614,
      "Ġpas": 1615,
      "form": 1616,
      "dep": 1617,
      "pause": 1618,
      "ittle": 1619,
      "Ġhost": 1620,
      "Ġlou": 1621,
      "Ġlittle": 1622,
      "ĠPages": 1623,
      "Ġstudy": 1624,
      "ference": 1625,
      "Ġmachdep": 1626,
      "brand": 1627,
      "Ġinclu": 1628,
      "Ġcomplete": 1629,
      "pan": 1630,
      "ines": 1631,
      "Ġ\"/": 1632,
      "Ġrestart": 1633,
      "string": 1634,
      "Ġ2400": 1635,
      "Calculator": 1636,
      "memsize": 1637,
      "ĠDo": 1638,
      "ĠCom": 1639,
      "Discord": 1640,
      "Microsoft": 1641,
      "less": 1642,
      "Ġwire": 1643,
      "dev": 1644,
      "cel": 1645,
      "Ġrough": 1646,
      "Ġ||": 1647,
      "ĠNumbers": 1648,
      "Ġlear": 1649,
      "Ġlevel": 1650,
      "ĠCalculator": 1651,
      "Ġkeep": 1652,
      "app": 1653,
      "Write": 1654,
      "ohn": 1655,
      "Ġser": 1656,
      "tions": 1657,
      "Ġnine": 1658,
      "Ġcook": 1659,
      "ings": 1660,
      "echo": 1661,
      "ĠWrite": 1662,
      "Ġ1080": 1663,
      "ĠJohn": 1664,
      "Ġanymo": 1665,
      "boarding": 1666,
      "12345": 1667,
      "firm": 1668,
      "Ġroughly": 1669,
      "Ġanymore": 1670,
      "ĠShow": 1671,
      "ĠCould": 1672,
      "Ġlisten": 1673,
      "Ġfocus": 1674,
      "App": 1675,
      "Numbers": 1676,
      "Put": 1677,
      "Ġtest": 1678,
      "orm": 1679,
      "ĠPut": 1680,
      "ĠApple": 1681,
      "ĠWork": 1682,
      "Ġspreadsheet": 1683,
      "Ġwireless": 1684,
      "Could": 1685,
      "Ġspe": 1686,
      "Center": 1687,
      "ĠZ": 1688,
      "Ġide": 1689,
      "etch": 1690,
      "Ġgr": 1691,
      "Ġwhy": 1692,
      "ĠExplain": 1693,
      "Ġdays": 1694,
      "umber": 1695,
      "Ġsix": 1696,
      "Ġboss": 1697,
      "Ġ9000": 1698,
      "Ġpos": 1699,
      "Ġgroceries": 1700,
      "Get": 1701,
      "ĠGet": 1702,
      "Countdown": 1703,
      "Explain": 1704,
      "null": 1705,
      "Ġhas": 1706,
      "otificationCenter": 1707,
      "Ġlater": 1708,
      "ĠPDF": 1709,
      "Ġgetting": 1710,
      "hotoshop": 1711,
      "ĠNotificationCenter": 1712,
      "ĠList": 1713,
      "Ġplanning": 1714,
      "Ġ3000": 1715,
      "Ġinclude": 1716,
      "Ġpossi": 1717,
      "Ġfull": 1718,
      "':": 1719,
      "Ġterm": 1720,
      "Ġactive": 1721,
      "Ġaccount": 1722,
      "ally": 1723,
      ">/": 1724,
      "Ġhere": 1725,
      "Ġterms": 1726,
      "Ġraise": 1727,
      "Ġ720": 1728,
      "Ġ7200": 1729,
      "Ġdead": 1730,
      "TextEdit": 1731,
      "Make": 1732,
      "Ġsales": 1733,
      "lection": 1734,
      "sec": 1735,
      "ĠMake": 1736,
      "Ġgive": 1737,
      "Ġlabe": 1738,
      "avor": 1739,
      "Ġten": 1740,
      "Term": 1741,
      "hide": 1742,
      "Ġsin": 1743,
      "err": 1744,
      "storm": 1745,
      "ainstorm": 1746,
      "Ġcleaning": 1747,
      "close": 1748,
      "Ġquiet": 1749,
      "Ġselect": 1750,
      "ast": 1751,
      "des": 1752,
      "Ġ.": 1753,
      "Ġerr": 1754,
      "Ġpr": 1755,
      "Ġother": 1756,
      "Ġvi": 1757,
      "Ġblock": 1758,
      "Ġrequ": 1759,
      "Ġey": 1760,
      "ĠCut": 1761,
      "Ġgre": 1762,
      "Ġconfirm": 1763,
      "aph": 1764,
      "Ġdetail": 1765,
      "draft": 1766,
      "mess": 1767,
      "ĠRec": 1768,
      "ĠPlan": 1769,
      "message": 1770,
      "Tr": 1771,
      "plate": 1772,
      "Ġdue": 1773,
      "Ġmemor": 1774,
      "ily": 1775,
      "ĠEm": 1776,
      "ĠArchive": 1777,
      "Ġshut": 1778,
      "ef": 1779,
      "md": 1780,
      "Ġour": 1781,
      "Ġfew": 1782,
      "ars": 1783,
      "atur": 1784,
      "ood": 1785,
      "ĠGoogle": 1786,
      "Ġorder": 1787,
      "Ġmarketing": 1788,
      "Ġagain": 1789,
      "Ġeyes": 1790,
      "?'": 1791,
      "ier": 1792,
      "ketch": 1793,
      "Ġsho": 1794,
      "Ġnight": 1795,
      "ĠPhotoshop": 1796,
      "ĠStore": 1797,
      "ĠSatur": 1798,
      "Ġ420": 1799,
      "ured": 1800,
      "box": 1801,
      "Ġbrighter": 1802,
      "Backups": 1803,
      "Ġprior": 1804,
      "ĠSaturday": 1805,
      "Sc": 1806,
      "Ġspeak": 1807,
      "Reports": 1808,
      "ives": 1809,
      "od": 1810,
      "Ġpath": 1811,
      "Ġonboarding": 1812,
      "Ġprof": 1813,
      "Ġeverything": 1814,
      "rchives": 1815,
      "Ġbills": 1816,
      "Ġideas": 1817,
      "Ġdetails": 1818,
      "All": 1819,
      "Would": 1820,
      "oices": 1821,
      "ru": 1822,
      "xcel": 1823,
      "Ġsure": 1824,
      "ĠIn": 1825,
      "ĠFr": 1826,
      "Ġends": 1827,
      "Ġ14400": 1828,
      "1234567": 1829,
      "Ġrem": 1830,
      "launch": 1831,
      "Ġconnected": 1832,
      "presentation": 1833,
      "skip": 1834,
      "hether": 1835,
      "icine": 1836,
      "Ġwas": 1837,
      "Ġwhether": 1838,
      "Ġthings": 1839,
      "ister": 1840,
      "Ġ480": 1841,
      "Ġconfig": 1842,
      "ipboard": 1843,
      "igma": 1844,
      "Ġseven": 1845,
      "bool": 1846,
      "Ġclipboard": 1847,
      "Ġpoem": 1848,
      "Ġmedicine": 1849,
      "Ġorganize": 1850,
      "Ġloud": 1851,
      "Ġmemory": 1852,
      "make": 1853,
      "Ġconnect": 1854,
      "Meeting": 1855,
      "âĢ": 1856,
      "Ġtrip": 1857,
      "Ġsister": 1858,
      "Ġcre": 1859,
      "Ġready": 1860,
      "ĠHey": 1861,
      "hich": 1862,
      "Ġbrow": 1863,
      "Ġbegin": 1864,
      "Point": 1865,
      "bsite": 1866,
      "Ġpar": 1867,
      "Ġoven": 1868,
      "stat": 1869,
      "owerPoint": 1870,
      "2026": 1871,
      "Ġimage": 1872,
      "Ġinvite": 1873,
      "Ġleave": 1874,
      "Com": 1875,
      "ild": 1876,
      "Help": 1877,
      "/\"": 1878,
      "Ġdi": 1879,
      "hello": 1880,
      "Ġec": 1881,
      "ĠWould": 1882,
      "\\\"\"": 1883,
      "ummary": 1884,
      "ShowAll": 1885,
      "Ġpartner": 1886,
      "ĠAppleShowAll": 1887,
      "Copy": 1888,
      "Ġsearch": 1889,
      "ĠHelp": 1890,
      "Client": 1891,
      "finder": 1892,
      "ged": 1893,
      "ppt": 1894,
      "voice": 1895,
      "Ġredu": 1896,
      "Ġinfo": 1897,
      "upport": 1898,
      "Ġquarter": 1899,
      "ĠDisturb": 1900,
      "Ġrename": 1901,
      "ĠNot": 1902,
      "Ġleft": 1903,
      "ĠAppleShowAllFiles": 1904,
      "St": 1905,
      "final": 1906,
      "ink": 1907,
      "Ġsm": 1908,
      "Ġ\".": 1909,
      "lex": 1910,
      "enda": 1911,
      "oup": 1912,
      "Ġ180": 1913,
      "omm": 1914,
      "Ġconference": 1915,
      "Ġworks": 1916,
      "Ġlatest": 1917,
      "Ġhigh": 1918,
      "Hey": 1919,
      "Ġbrainstorm": 1920,
      "rategy": 1921,
      "pptx": 1922,
      "just": 1923,
      "ky": 1924,
      "son": 1925,
      "sing": 1926,
      "voices": 1927,
      "Ġu": 1928,
      "Ġsort": 1929,
      "orld": 1930,
      "Ġnumber": 1931,
      "Ġpack": 1932,
      "Ġboo": 1933,
      "Ġsoft": 1934,
      "Ġincrease": 1935,
      "Ġdirector": 1936,
      "Ġfunction": 1937,
      "Ġecho": 1938,
      "'ve": 1939,
      "55": 1940,
      "ix": 1941,
      "inance": 1942,
      "Ġsto": 1943,
      "Ġdry": 1944,
      "Ġpap": 1945,
      "arted": 1946,
      "acation": 1947,
      "atch": 1948,
      "Ġel": 1949,
      "Ġprepare": 1950,
      "compose": 1951,
      "Ġparty": 1952,
      "Ġeighty": 1953,
      "Ġpassed": 1954,
      "lines": 1955,
      "Ġzip": 1956,
      "Ġmain": 1957,
      "Ġfe": 1958,
      "Ġdesign": 1959,
      "Ġcol": 1960,
      "Ġwon": 1961,
      "rop": 1962,
      "Ġelect": 1963,
      "ĠTrip": 1964,
      "ĠappName": 1965,
      "ĠFolder": 1966,
      "ĠWord": 1967,
      "Ġemails": 1968,
      "lides": 1969,
      "Ġwindows": 1970,
      "ĠTeams": 1971,
      "Ġhostname": 1972,
      "Ġelectric": 1973,
      "Turn": 1974,
      "budget": 1975,
      "ities": 1976,
      "kay": 1977,
      "rank": 1978,
      "endor": 1979,
      "ached": 1980,
      "agr": 1981,
      "cept": 1982,
      "ĠTurn": 1983,
      "Ġcons": 1984,
      "emplate": 1985,
      "ĠOld": 1986,
      "Ġconfigured": 1987,
      "Ġstock": 1988,
      "check": 1989,
      "hen": 1990,
      "ret": 1991,
      "Ġret": 1992,
      "ĠCopy": 1993,
      "Ġexit": 1994,
      "Ġbuild": 1995,
      "Messages": 1996,
      "yth": 1997,
      "ery": 1998,
      "Ġoth": 1999,
      "als": 2000,
      "Ġlook": 2001,
      "ĠExcel": 2002,
      "Ġusage": 2003,
      "alex": 2004,
      "Ġlogged": 2005,
      "ĠZoom": 2006,
      "Ġothers": 2007,
      "Rec": 2008,
      "ange": 2009,
      "*.": 2010,
      "ai": 2011,
      "Ġeas": 2012,
      "Ġstory": 2013,
      "Ġstarted": 2014,
      "Ġmore": 2015,
      "Ġmood": 2016,
      "ĠApp": 2017,
      "ĠAlex": 2018,
      "Ġprep": 2019,
      "lients": 2020,
      "Quit": 2021,
      "ĠHR": 2022,
      "Ġstepping": 2023,
      "Ġsaved": 2024,
      "ctions": 2025,
      "Ġlearning": 2026,
      "ython": 2027,
      "50": 2028,
      "AM": 2029,
      "dis": 2030,
      "invoice": 2031,
      "its": 2032,
      "Ġnames": 2033,
      "ffer": 2034,
      "Ġ150": 2035,
      "Ġworking": 2036,
      "ĠJav": 2037,
      "Ġreduce": 2038,
      "ĠJava": 2039,
      "ĠCheck": 2040,
      "Ġask": 2041,
      "bum": 2042,
      "ha": 2043,
      "ipt": 2044,
      "ites": 2045,
      "ouble": 2046,
      "Ġyear": 2047,
      "Ġfolders": 2048,
      "ĠPowerPoint": 2049,
      "ĠPython": 2050,
      "Ġtrouble": 2051,
      "Ġstarts": 2052,
      "resume": 2053,
      "ĠReports": 2054,
      "Ġcontents": 2055,
      "Ġimport": 2056,
      "ĠVS": 2057,
      "Ġtrying": 2058,
      "second": 2059,
      "Ġgrep": 2060,
      "âĢĳ": 2061,
      "Ġdiffer": 2062,
      "Ġdirectory": 2063,
      "Ġsil": 2064,
      "ggle": 2065,
      "ward": 2066,
      "yze": 2067,
      "Ġ=": 2068,
      "Ġold": 2069,
      "ations": 2070,
      "Ġbut": 2071,
      "ĠEng": 2072,
      "12345678": 2073,
      "Ġparagr": 2074,
      "emplates": 2075,
      "Ġparagraph": 2076,
      "na": 2077,
      "Ġslides": 2078,
      "Ġcapture": 2079,
      "Ġscho": 2080,
      "Ġyour": 2081,
      "Ġvendor": 2082,
      "ager": 2083,
      "Ġmodel": 2084,
      "Ġsoon": 2085,
      "Ġalbum": 2086,
      "ggest": 2087,
      "Ġattached": 2088,
      "Ġgroup": 2089,
      "Ġdeadline": 2090,
      "Ġschool": 2091,
      "Temp": 2092,
      "ĠTranslate": 2093,
      "Translate": 2094,
      "Maps": 2095,
      "bu": 2096,
      "nel": 2097,
      "ering": 2098,
      "Ġcars": 2099,
      "Ġdoes": 2100,
      "ĠClient": 2101,
      "Ġuptime": 2102,
      "Ġren": 2103,
      "ĠRAM": 2104,
      "Ġinterf": 2105,
      "Ġheading": 2106,
      "ipts": 2107,
      "Ġcalcul": 2108,
      "Ġsilence": 2109,
      "ME": 2110,
      "een": 2111,
      "ebsite": 2112,
      "gn": 2113,
      "lower": 2114,
      "Ġpol": 2115,
      "Ġbetw": 2116,
      "ĠMaps": 2117,
      "ĠCall": 2118,
      "Ġmost": 2119,
      "nter": 2120,
      "urring": 2121,
      "Ġheart": 2122,
      "Ġdefault": 2123,
      "ĠVisual": 2124,
      "Ġrecurring": 2125,
      "Ġlabel": 2126,
      "Ġsmall": 2127,
      "Ġbetween": 2128,
      "Archives": 2129,
      "Hardware": 2130,
      "POSIX": 2131,
      "net": 2132,
      "stop": 2133,
      "tice": 2134,
      "Ġfavor": 2135,
      "ics": 2136,
      "ply": 2137,
      "Ġlo": 2138,
      "Ġtraining": 2139,
      "Ġann": 2140,
      "ĠFinal": 2141,
      "Ġ&&": 2142,
      "Ġwell": 2143,
      "ĠReview": 2144,
      "ommend": 2145,
      "Ġrenew": 2146,
      "press": 2147,
      "ĠTell": 2148,
      "Tell": 2149,
      "/*.": 2150,
      "cted": 2151,
      "zz": 2152,
      "olve": 2153,
      "ĠIde": 2154,
      "Ġthere": 2155,
      "Ġloo": 2156,
      "Ġperson": 2157,
      "Ġshuffling": 2158,
      "Ġsteps": 2159,
      "ĠĠĠĠ": 2160,
      "Ġlogin": 2161,
      "Ġpossible": 2162,
      "Ġwill": 2163,
      "Final": 2164,
      "Res": 2165,
      "aking": 2166,
      "bil": 2167,
      "Ġsummary": 2168,
      "hes": 2169,
      "oli": 2170,
      "Ġapplications": 2171,
      "Ġlow": 2172,
      "dex": 2173,
      "Ġrout": 2174,
      "Ġnews": 2175,
      "Ġthank": 2176,
      "nalyze": 2177,
      "Ġdevices": 2178,
      "Ġuse": 2179,
      "Ġsummarize": 2180,
      "Ġscreencapture": 2181,
      "Ġx": 2182,
      "Ġdesk": 2183,
      "Ġtheme": 2184,
      "Ġph": 2185,
      "Ġpoint": 2186,
      "usto": 2187,
      "ĠMom": 2188,
      "istory": 2189,
      "ĠWorld": 2190,
      "sign": 2191,
      "Ġbeen": 2192,
      "Ġ2026": 2193,
      "ĠNew": 2194,
      "Ġexcept": 2195,
      "Ġmanager": 2196,
      "ĠIdeas": 2197,
      "cle": 2198,
      "ĠSync": 2199,
      "ĠReveal": 2200,
      "Reveal": 2201,
      "AD": 2202,
      "EAD": 2203,
      "Give": 2204,
      "ub": 2205,
      "Ġkey": 2206,
      "Ġtab": 2207,
      "Ġtop": 2208,
      "orted": 2209,
      "medi": 2210,
      "Ġcode": 2211,
      "esting": 2212,
      "Ġthese": 2213,
      "Ġphone": 2214,
      "ĠTo": 2215,
      "Ġcomment": 2216,
      "Ġprefer": 2217,
      "Ġweekly": 2218,
      "Ġchance": 2219,
      "Ġtimes": 2220,
      "Ġunti": 2221,
      "Ġunder": 2222,
      "ĠGive": 2223,
      "Ġclosed": 2224,
      "ggs": 2225,
      "Invoices": 2226,
      "appy": 2227,
      "EADME": 2228,
      "))": 2229,
      "Mail": 2230,
      "aunch": 2231,
      "azz": 2232,
      "iz": 2233,
      "mark": 2234,
      "used": 2235,
      "Ċĉ": 2236,
      "Ġaut": 2237,
      "Ġair": 2238,
      "Ġspotify": 2239,
      "erv": 2240,
      "Ġve": 2241,
      "ately": 2242,
      "alth": 2243,
      "Ġear": 2244,
      "Ġfix": 2245,
      "Ġaccess": 2246,
      "ĠHome": 2247,
      "Ġexp": 2248,
      "icture": 2249,
      "Ġroot": 2250,
      "Ġfocused": 2251,
      "Ġlocation": 2252,
      "Ġediting": 2253,
      "Ġerror": 2254,
      "Ġeasier": 2255,
      "bug": 2256,
      "Ġpersonal": 2257,
      "oliday": 2258,
      "Ġdec": 2259,
      "'re": 2260,
      "Rename": 2261,
      "cd": 2262,
      "ge": 2263,
      "Ġsupport": 2264,
      "red": 2265,
      "Ġcard": 2266,
      "Ġindex": 2267,
      "ĠSpan": 2268,
      "ources": 2269,
      "Ġits": 2270,
      "reenshot": 2271,
      "Ġeng": 2272,
      "Ġoffsite": 2273,
      "avel": 2274,
      "ĠRename": 2275,
      "Ġweekend": 2276,
      "Ġarea": 2277,
      "Ġimmedi": 2278,
      "Ġresp": 2279,
      "ĠSPHardware": 2280,
      "ĠSpanish": 2281,
      "Ġimmediately": 2282,
      "ĠSPHardwareDataType": 2283,
      "Ġokay": 2284,
      "Finance": 2285,
      "lud": 2286,
      "lish": 2287,
      "project": 2288,
      "ones": 2289,
      "lected": 2290,
      "Ġdata": 2291,
      "Ġcusto": 2292,
      "Ġhardware": 2293,
      "Ġinbox": 2294,
      "Ġlove": 2295,
      "Ġ((": 2296,
      "getairportpower": 2297,
      "Ġarch": 2298,
      "Ġselected": 2299,
      "lpha": 2300,
      "ĠiTerm": 2301,
      "ĠĠĠ": 2302,
      "Ġletter": 2303,
      "pany": 2304,
      "ĠEnglish": 2305,
      "Ġuntil": 2306,
      "Draft": 2307,
      "uffle": 2308,
      "shuffle": 2309,
      "Website": 2310,
      "aded": 2311,
      "eipts": 2312,
      "hour": 2313,
      "pdate": 2314,
      "ener": 2315,
      "ons": 2316,
      "Ġmis": 2317,
      "Ġdownlo": 2318,
      "Ġdrive": 2319,
      "ety": 2320,
      "Ġpair": 2321,
      "Ġtech": 2322,
      "Ġdoing": 2323,
      "ĠPOSIX": 2324,
      "Ġopening": 2325,
      "Ġprogr": 2326,
      "Ġker": 2327,
      "Ġcontin": 2328,
      "Ġassign": 2329,
      "rab": 2330,
      "Ġexample": 2331,
      "Ġchanges": 2332,
      "Ġinvest": 2333,
      "Ġinclud": 2334,
      "Ġjob": 2335,
      "Preferences": 2336,
      "Ġexplaining": 2337,
      "Ġlistening": 2338,
      "Ġsoftware": 2339,
      "Ġelse": 2340,
      "Ġpoints": 2341,
      "Ġprogram": 2342,
      "Sh": 2343,
      "pre": 2344,
      "Ġnotify": 2345,
      "Ġjoin": 2346,
      "Mess": 2347,
      "elete": 2348,
      "lay": 2349,
      "lass": 2350,
      "ore": 2351,
      "ph": 2352,
      "phone": 2353,
      "inter": 2354,
      "ernal": 2355,
      "tire": 2356,
      "Ġtheir": 2357,
      "Ġhistory": 2358,
      "ated": 2359,
      "Ġins": 2360,
      "Ġstring": 2361,
      "ineering": 2362,
      "Ġtimeline": 2363,
      "Ġimpro": 2364,
      "Ġrecip": 2365,
      "Ġlocal": 2366,
      "Ġagenda": 2367,
      "Ġdirections": 2368,
      "Ġadjust": 2369,
      "Ġdevice": 2370,
      "Message": 2371,
      "ne": 2372,
      "enable": 2373,
      "take": 2374,
      "tmp": 2375,
      "ĠQ": 2376,
      "Ġcap": 2377,
      "Ġwc": 2378,
      "olog": 2379,
      "Ġop": 2380,
      "ating": 2381,
      "Ġthink": 2382,
      "Ġfig": 2383,
      "ĠDisc": 2384,
      "Ġ23": 2385,
      "ĠAlpha": 2386,
      "Ġentire": 2387,
      "Ġeveryone": 2388,
      "Ġsince": 2389,
      "Ġview": 2390,
      "Ġinterface": 2391,
      "Ġpolite": 2392,
      "reenshots": 2393,
      "enerate": 2394,
      "Pl": 2395,
      "gent": 2396,
      "move": 2397,
      "switch": 2398,
      "ĠTemp": 2399,
      "Plan": 2400,
      "120": 2401,
      "elt": 2402,
      "file": 2403,
      "ivers": 2404,
      "inety": 2405,
      "tim": 2406,
      "Ġdid": 2407,
      "Ġninety": 2408,
      "ptop": 2409,
      "ĠSketch": 2410,
      "edback": 2411,
      "Ġgood": 2412,
      "ĠFigma": 2413,
      "Ġoffline": 2414,
      "Ġdefaults": 2415,
      "Ġdelay": 2416,
      "ired": 2417,
      "Ġlaptop": 2418,
      "pos": 2419,
      "formance": 2420,
      "ĠEmily": 2421,
      "Script": 2422,
      "Ġpapers": 2423,
      "Ġimportant": 2424,
      "Ġimprove": 2425,
      "iversary": 2426,
      "when": 2427,
      "Ġcle": 2428,
      "Ġcrank": 2429,
      "bes": 2430,
      "ds": 2431,
      "felt": 2432,
      "Ġent": 2433,
      "ĠQuick": 2434,
      "Ġdrop": 2435,
      "rief": 2436,
      "Ġphotos": 2437,
      "ando": 2438,
      "Ġforget": 2439,
      "Ġbus": 2440,
      "Ġrest": 2441,
      "alk": 2442,
      "Ġequ": 2443,
      "ump": 2444,
      "Ġstrategy": 2445,
      "ĠRom": 2446,
      "ĠRoad": 2447,
      "Ġdeal": 2448,
      "Ġreading": 2449,
      "Ġlonger": 2450,
      "Ġprac": 2451,
      "Ġshopping": 2452,
      "Ġspeaker": 2453,
      "Ġheartfelt": 2454,
      "Ġanniversary": 2455,
      "Ġrespond": 2456,
      "Ġincluding": 2457,
      "Close": 2458,
      "Ġinform": 2459,
      "ocus": 2460,
      "ĠClose": 2461,
      "$(": 2462,
      "Road": 2463,
      "Summarize": 2464,
      "Vol": 2465,
      "iti": 2466,
      "oun": 2467,
      "Ġcrea": 2468,
      "ese": 2469,
      "arm": 2470,
      "attery": 2471,
      "Ġeach": 2472,
      "Ġeggs": 2473,
      "ĠSummarize": 2474,
      "Ġwhere": 2475,
      "ĠEmp": 2476,
      "Ġhealth": 2477,
      "ĠWar": 2478,
      "apan": 2479,
      "Ġsomeone": 2480,
      "Ġwhole": 2481,
      "Reminders": 2482,
      "ĠJapan": 2483,
      "Ġcontract": 2484,
      "Ġclass": 2485,
      "Ġattach": 2486,
      "ruit": 2487,
      "Ġkernel": 2488,
      "ĠRoman": 2489,
      "Ġinformation": 2490,
      "ĠEmpire": 2491,
      "Ġform": 2492,
      "Ġforward": 2493,
      "Ġtemp": 2494,
      "Ġreply": 2495,
      "Pro": 2496,
      "QL": 2497,
      "bin": 2498,
      "ibes": 2499,
      "mv": 2500,
      "ose": 2501,
      "rr": 2502,
      "tal": 2503,
      "Ġrom": 2504,
      "enu": 2505,
      "enti": 2506,
      "Ġflight": 2507,
      "ital": 2508,
      "Ġbest": 2509,
      "ective": 2510,
      "Ġ210": 2511,
      "ysical": 2512,
      "ains": 2513,
      "ands": 2514,
      "Ġturned": 2515,
      "Ġlik": 2516,
      "afe": 2517,
      "Ġimages": 2518,
      "ĠVibes": 2519,
      "Ġjoke": 2520,
      "Calendar": 2521,
      "unday": 2522,
      "Ġpriority": 2523,
      "Ġcreation": 2524,
      "Ġfigure": 2525,
      "posal": 2526,
      "ĠMark": 2527,
      "Ġclear": 2528,
      "ID": 2529,
      "cet": 2530,
      "eded": 2531,
      "iTerm": 2532,
      "ult": 2533,
      "way": 2534,
      "Ġsur": 2535,
      "entif": 2536,
      "lephone": 2537,
      "Ġfau": 2538,
      "Ġdr": 2539,
      "etter": 2540,
      "antic": 2541,
      "Ġtelephone": 2542,
      "Ġbook": 2543,
      "Ġinven": 2544,
      "Ġfire": 2545,
      "urgent": 2546,
      "sets": 2547,
      "ĠSQL": 2548,
      "ĠDad": 2549,
      "Ġrent": 2550,
      "lier": 2551,
      "Ġheadlines": 2552,
      "Ġexternal": 2553,
      "mov": 2554,
      "Ġcompleted": 2555,
      "Ġrequest": 2556,
      "ĠFrance": 2557,
      "Ġhighlight": 2558,
      "Ġboot": 2559,
      "ĠJavaScript": 2560,
      "Ġloop": 2561,
      "Ġearlier": 2562,
      "Ġtechn": 2563,
      "Ġprogramm": 2564,
      "Ġcreative": 2565,
      "Ġromantic": 2566,
      "Ġfaucet": 2567,
      "Ġinvented": 2568,
      "ĠDraft": 2569,
      "Ġgrab": 2570,
      "Ġsuggest": 2571,
      "disable": 2572,
      "35": 2573,
      "FaceTime": 2574,
      "To": 2575,
      "ait": 2576,
      "cs": 2577,
      "dir": 2578,
      "ift": 2579,
      "kdir": 2580,
      "ĠY": 2581,
      "Ġsafari": 2582,
      "Ġmul": 2583,
      "Ġfee": 2584,
      "repeat": 2585,
      "Ġwait": 2586,
      "esla": 2587,
      "Ġholiday": 2588,
      "aris": 2589,
      "Ġbrief": 2590,
      "todo": 2591,
      "essor": 2592,
      "ĠParis": 2593,
      "ĠSunday": 2594,
      "Ġ28": 2595,
      "ĠMix": 2596,
      "ĠTesla": 2597,
      "Ġ567": 2598,
      "Ġcommand": 2599,
      "Ġchecklist": 2600,
      "Ġkind": 2601,
      "ared": 2602,
      "Ġdates": 2603,
      "aving": 2604,
      "ription": 2605,
      "Ġroom": 2606,
      "Ġconnection": 2607,
      "Ġpossibil": 2608,
      "Ġspeakers": 2609,
      "Ġfeedback": 2610,
      "ailed": 2611,
      "Ġveget": 2612,
      "Ġcustomer": 2613,
      "Ġcapital": 2614,
      "Ġ234": 2615,
      "Ġpractice": 2616,
      "ĠJapanese": 2617,
      "Ġmulti": 2618,
      "Ġpossibilities": 2619,
      "ax": 2620,
      "new": 2621,
      "ĠCon": 2622,
      "conn": 2623,
      "Ġbrowse": 2624,
      "Display": 2625,
      "mkdir": 2626,
      "pective": 2627,
      "rough": 2628,
      "ssets": 2629,
      "uy": 2630,
      "ycle": 2631,
      "iness": 2632,
      "ench": 2633,
      "ors": 2634,
      "Ġpicture": 2635,
      "Ġapolog": 2636,
      "Ġbetter": 2637,
      "Ġ16": 2638,
      "Ġnotifications": 2639,
      "Ġnear": 2640,
      "ĠDemo": 2641,
      "amily": 2642,
      "thank": 2643,
      "Ġperformance": 2644,
      "Ġoffice": 2645,
      "Ġexpen": 2646,
      "Ġinternet": 2647,
      "pods": 2648,
      "Ġheadph": 2649,
      "archive": 2650,
      "Ġleaky": 2651,
      "rospective": 2652,
      "Ġcooking": 2653,
      "Ġvia": 2654,
      "ĠFrench": 2655,
      "Ġdifference": 2656,
      "Ġairpods": 2657,
      "Ġrecipe": 2658,
      "andom": 2659,
      "Ġsurpr": 2660,
      "Ġheadphones": 2661,
      "Power": 2662,
      "Ġcc": 2663,
      "ĠAl": 2664,
      "ĠiMessage": 2665,
      "44": 2666,
      "70": 2667,
      "Clients": 2668,
      "Find": 2669,
      "Figma": 2670,
      "Sketch": 2671,
      "crease": 2672,
      "ments": 2673,
      "val": 2674,
      "zone": 2675,
      "Ġ*": 2676,
      "Ġurgent": 2677,
      "ends": 2678,
      "ouse": 2679,
      "tes": 2680,
      "Ġwalk": 2681,
      "Ġrep": 2682,
      "Ġline": 2683,
      "Ġ21": 2684,
      "Ġgu": 2685,
      "ĠAre": 2686,
      "ĠFind": 2687,
      "ĠFiles": 2688,
      "Ġrandom": 2689,
      "2025": 2690,
      "Ġsounds": 2691,
      "odel": 2692,
      "scutil": 2693,
      "Ġchar": 2694,
      "essional": 2695,
      "Ġfore": 2696,
      "ĠWiFi": 2697,
      "ĠProduct": 2698,
      "Ġprofessor": 2699,
      "Ġprofessional": 2700,
      "Who": 2701,
      "dentif": 2702,
      "\",": 2703,
      "by": 2704,
      "ie": 2705,
      "ners": 2706,
      "tt": 2707,
      "week": 2708,
      "Ġhello": 2709,
      "Ġtim": 2710,
      "anc": 2711,
      "ane": 2712,
      "Ġhit": 2713,
      "Ġhim": 2714,
      "Ġhur": 2715,
      "xty": 2716,
      "que": 2717,
      "ĠDesign": 2718,
      "Ġtrends": 2719,
      "ĠAn": 2720,
      "Ġ'{": 2721,
      "ĠnewVolume": 2722,
      "Ġ4500": 2723,
      "Ġdebug": 2724,
      "Ġjot": 2725,
      "Ġplans": 2726,
      "Ġsixty": 2727,
      "Ġleaving": 2728,
      "Ġrecruit": 2729,
      "Ġretrospective": 2730,
      "1234567890": 2731,
      "Ġinvestor": 2732,
      "Ġbusiness": 2733,
      "ults": 2734,
      "Con": 2735,
      "Check": 2736,
      "notify": 2737,
      "Ġtoggle": 2738,
      "ĠCol": 2739,
      "ĠCount": 2740,
      "'.": 2741,
      "Buy": 2742,
      "Templates": 2743,
      "ser": 2744,
      "ution": 2745,
      "enc": 2746,
      "ergy": 2747,
      "olution": 2748,
      "Ġpm": 2749,
      "ĠII": 2750,
      "ndry": 2751,
      "Ġ13": 2752,
      "Ġthrough": 2753,
      "Ġlau": 2754,
      "ĠMorning": 2755,
      "arty": 2756,
      "Ġdarker": 2757,
      "Ġkick": 2758,
      "Ġ2025": 2759,
      "Ġdocuments": 2760,
      "Ġlibrary": 2761,
      "ĠOff": 2762,
      "Ġboard": 2763,
      "systemsetup": 2764,
      "Ġjohn": 2765,
      "ĠUX": 2766,
      "oftware": 2767,
      "Ġfriendly": 2768,
      "Ġbeginner": 2769,
      "Ġlearn": 2770,
      "Ġkeeps": 2771,
      "Ġserv": 2772,
      "Ġdrag": 2773,
      "Ġtiming": 2774,
      "ĠCollection": 2775,
      "Ġlaundry": 2776,
      "My": 2777,
      "ĠQuit": 2778,
      "Ġquery": 2779,
      "ĠWho": 2780,
      "ĠRemind": 2781,
      "Remind": 2782,
      "previous": 2783,
      "600": 2784,
      "cise": 2785,
      "hit": 2786,
      "pon": 2787,
      "ract": 2788,
      "ts": 2789,
      "Ġes": 2790,
      "Ġmoun": 2791,
      "icial": 2792,
      "isa": 2793,
      "eth": 2794,
      "Ġpost": 2795,
      "Ġvoice": 2796,
      "Ġvacation": 2797,
      "tificial": 2798,
      "Ġmeal": 2799,
      "eption": 2800,
      "Ġintell": 2801,
      "dobe": 2802,
      "Ġmoving": 2803,
      "Ġpros": 2804,
      "Ġproposal": 2805,
      "Ġconvers": 2806,
      "Ġpercentage": 2807,
      "Ġenergy": 2808,
      "ĠREADME": 2809,
      "Ġdisplaysleep": 2810,
      "Ġartificial": 2811,
      "igence": 2812,
      "Ġplace": 2813,
      "Ġless": 2814,
      "ĠStandup": 2815,
      "Ġcover": 2816,
      "Ġupdates": 2817,
      "ĠSPPower": 2818,
      "Volumes": 2819,
      "ĠWorkshop": 2820,
      "avorites": 2821,
      "Ġcalculus": 2822,
      "Ġphysical": 2823,
      "Ġengineering": 2824,
      "Ġcontinue": 2825,
      "lassical": 2826,
      "Ġliked": 2827,
      "Ġmounted": 2828,
      "Ġintelligence": 2829,
      "ĠSPPowerDataType": 2830,
      "Launch": 2831,
      "bring": 2832,
      "find": 2833,
      "Ġtotal": 2834,
      "next": 2835,
      ");": 2836,
      "atic": 2837,
      "bal": 2838,
      "sDataType": 2839,
      "tique": 2840,
      "Ġtodo": 2841,
      "Ġcou": 2842,
      "ritique": 2843,
      "Ġpictures": 2844,
      "Ġhy": 2845,
      "Ġbas": 2846,
      "Ġint": 2847,
      "ross": 2848,
      "Ġlost": 2849,
      "Ġque": 2850,
      "omatic": 2851,
      "ĠCo": 2852,
      "istr": 2853,
      "Ġgift": 2854,
      "lobal": 2855,
      "ables": 2856,
      "ĠRes": 2857,
      "apter": 2858,
      "ĠOn": 2859,
      "erman": 2860,
      "ĠSPDisplay": 2861,
      "rics": 2862,
      "Ġlabeled": 2863,
      "Ġerrands": 2864,
      "Ġexamples": 2865,
      "Ġequation": 2866,
      "Ġresponding": 2867,
      "Ġmultiple": 2868,
      "ĠAnna": 2869,
      "Ġdragon": 2870,
      "Ġestim": 2871,
      "Ġdisplaysleepnow": 2872,
      "ĠSPDisplaysDataType": 2873,
      "return": 2874,
      "Ġremove": 2875,
      ").": 2876,
      "900": 2877,
      "Adobe": 2878,
      "Cont": 2879,
      "Design": 2880,
      "Drive": 2881,
      "Err": 2882,
      "fort": 2883,
      "map": 2884,
      "ollow": 2885,
      "rm": 2886,
      "tor": 2887,
      "ĊĠĠĠ": 2888,
      "Ġsign": 2889,
      "orce": 2890,
      "tegr": 2891,
      "Ġpresent": 2892,
      "Ġhaving": 2893,
      "Ġbed": 2894,
      "Ġbread": 2895,
      "Ġreally": 2896,
      "Ġ19": 2897,
      "Ġnego": 2898,
      "urity": 2899,
      "ĠTemplates": 2900,
      "ĠappList": 2901,
      "ĠHits": 2902,
      "Ġselection": 2903,
      "lax": 2904,
      "Ġmonitor": 2905,
      "ather": 2906,
      "Ġmedication": 2907,
      "Ġdeadlines": 2908,
      "Ġprioriti": 2909,
      "Ġremote": 2910,
      "ClientA": 2911,
      "Ġmissed": 2912,
      "connect": 2913,
      "Ġexpense": 2914,
      "Ġcouple": 2915,
      "fortable": 2916,
      "Ġnegoti": 2917,
      "Duplicate": 2918,
      "activate": 2919,
      "toggle": 2920,
      "ĠDuplicate": 2921,
      "ĠCompare": 2922,
      "ĠRecommend": 2923,
      "Compare": 2924,
      "Recommend": 2925,
      "18": 2926,
      "cur": 2927,
      "cast": 2928,
      "igh": 2929,
      "ku": 2930,
      "wall": 2931,
      "ĠSS": 2932,
      "itect": 2933,
      "Ġcho": 2934,
      "Ġthey": 2935,
      "Ġhr": 2936,
      "Ġhund": 2937,
      "Ġhai": 2938,
      "Ġhouse": 2939,
      "Ġmedit": 2940,
      "Ġba": 2941,
      "Ġbump": 2942,
      "Ġrece": 2943,
      "Ġ17": 2944,
      "ats": 2945,
      "Ġneeded": 2946,
      "octor": 2947,
      "Ġtravel": 2948,
      "Ġgl": 2949,
      "Ġaction": 2950,
      "aily": 2951,
      "ĠTime": 2952,
      "Ġconcent": 2953,
      "eekly": 2954,
      "Ġsending": 2955,
      "Ġ202": 2956,
      "iginal": 2957,
      "arian": 2958,
      "Ġexer": 2959,
      "angu": 2960,
      "Ġsuc": 2961,
      "ĠStrategy": 2962,
      "Ġresults": 2963,
      "Ġnetworksetup": 2964,
      "ĠUpdate": 2965,
      "Ġlocated": 2966,
      "akes": 2967,
      "Ġserver": 2968,
      "Screenshots": 2969,
      "Ġfeat": 2970,
      "Receipts": 2971,
      "Ġautomatic": 2972,
      "Shared": 2973,
      "Ġtechnical": 2974,
      "Ġprogrammers": 2975,
      "Ġqueue": 2976,
      "Error": 2977,
      "Ġprioritize": 2978,
      "itecture": 2979,
      "Ġhundred": 2980,
      "Ġhaiku": 2981,
      "Analyze": 2982,
      "Ġcut": 2983,
      "Ġpop": 2984,
      "ĠAnalyze": 2985,
      "raise": 2986,
      "//": 2987,
      "/{": 2988,
      "Favorites": 2989,
      "ative": 2990,
      "ber": 2991,
      "ding": 2992,
      "dge": 2993,
      "ny": 2994,
      "your": 2995,
      "Ġsn": 2996,
      "Ġsal": 2997,
      "Ġfamily": 2998,
      "Ġcam": 2999,
      "ĠInter": 3000,
      "acy": 3001,
      "Ġload": 3002,
      "Ġlangu": 3003,
      "Ġele": 3004,
      "Ġ330": 3005,
      "ams": 3006,
      "Ġcomp": 3007,
      "sive": 3008,
      "ĠcurrentVolume": 3009,
      "company": 3010,
      "Ġ\\\"$": 3011,
      "Ġexper": 3012,
      "Ġexact": 3013,
      "Ġchan": 3014,
      "Ġplain": 3015,
      "Ġoriginal": 3016,
      "ĠLunch": 3017,
      "Ġ555": 3018,
      "Ġusername": 3019,
      "Ġalice": 3020,
      "Workout": 3021,
      "Start": 3022,
      "Ġpacking": 3023,
      "Ġpackage": 3024,
      "Ġpaper": 3025,
      "Ġelectricity": 3026,
      "Ġsurprise": 3027,
      "ĠAlice": 3028,
      "yourname": 3029,
      "Count": 3030,
      "Do": 3031,
      "Which": 3032,
      "ĠK": 3033,
      "ĠWhich": 3034,
      "Ġprocessor": 3035,
      "Ġidentif": 3036,
      "ĠCompress": 3037,
      "Compress": 3038,
      "disk": 3039,
      "Delete": 3040,
      "good": 3041,
      "genda": 3042,
      "ian": 3043,
      "lic": 3044,
      "mpt": 3045,
      "nable": 3046,
      "ped": 3047,
      "ras": 3048,
      "work": 3049,
      "ynt": 3050,
      "zoom": 3051,
      "}'": 3052,
      "enef": 3053,
      "Ġfro": 3054,
      "orage": 3055,
      "Ġcritique": 3056,
      "ently": 3057,
      "anks": 3058,
      "ndie": 3059,
      "Ġbenef": 3060,
      "Ġrehe": 3061,
      "uss": 3062,
      "Ġly": 3063,
      "Ġfinance": 3064,
      "ecut": 3065,
      "Ġcomfortable": 3066,
      "Ġsecure": 3067,
      "coming": 3068,
      "Ġturning": 3069,
      "Ġdeli": 3070,
      "Ġrepeating": 3071,
      "itchen": 3072,
      "Ġbytes": 3073,
      "ĠStart": 3074,
      "User": 3075,
      "Ġroad": 3076,
      "ship": 3077,
      "Ġdimmer": 3078,
      "ĠBackups": 3079,
      "Ġfunny": 3080,
      "Ġshop": 3081,
      "Ġcredit": 3082,
      "Ġbegins": 3083,
      "kyo": 3084,
      "Ġtroublesho": 3085,
      "Ġrenewable": 3086,
      "hesis": 3087,
      "ĠTokyo": 3088,
      "izing": 3089,
      "ervices": 3090,
      "Ġdownload": 3091,
      "Ġvegetarian": 3092,
      "Ġrecruiter": 3093,
      "Ġconversation": 3094,
      "ĠSSID": 3095,
      "Ġbenefits": 3096,
      "copy": 3097,
      "which": 3098,
      "you": 3099,
      "culate": 3100,
      "uild": 3101,
      "Ġtempor": 3102,
      "-%": 3103,
      ":%": 3104,
      "://": 3105,
      "Hide": 3106,
      "\\'": 3107,
      "ati": 3108,
      "efore": 3109,
      "here": 3110,
      "of": 3111,
      "over": 3112,
      "zen": 3113,
      "ĠX": 3114,
      "Ġ[": 3115,
      "Ġ]": 3116,
      "Ġtail": 3117,
      "iner": 3118,
      "Ġmay": 3119,
      "Ġmix": 3120,
      "redi": 3121,
      "ised": 3122,
      "Ġclo": 3123,
      "Ġpub": 3124,
      "entor": 3125,
      "Ġtea": 3126,
      "Ġbl": 3127,
      "Ġthose": 3128,
      "Ġeff": 3129,
      "Ġevents": 3130,
      "Ġfinal": 3131,
      "chain": 3132,
      "Ġgone": 3133,
      "ĠArchives": 3134,
      "Ġanal": 3135,
      "Ġansw": 3136,
      "ĠType": 3137,
      "ĠFocus": 3138,
      "Ġkitchen": 3139,
      "ĠHide": 3140,
      "Ġtwel": 3141,
      "ĠBudget": 3142,
      "Ġexecut": 3143,
      "ogs": 3144,
      "ĠJazz": 3145,
      "ified": 3146,
      "Ġanything": 3147,
      "Ġrecord": 3148,
      "Ġmodified": 3149,
      "Ġfridge": 3150,
      "Ġaccounts": 3151,
      "Ġrequesting": 3152,
      "Resources": 3153,
      "Ġdataset": 3154,
      "Ġarchive": 3155,
      "Ġarchitecture": 3156,
      "Ġforeground": 3157,
      "ttps": 3158,
      "Ġconcentrate": 3159,
      "ynthesis": 3160,
      "Ġfrozen": 3161,
      "Ġlyrics": 3162,
      "Ġmaybe": 3163,
      "redients": 3164,
      "Ġtwelve": 3165,
      "ĠSc": 3166,
      "ĠSh": 3167,
      "ĠDoctor": 3168,
      "Trash": 3169,
      "Bluetooth": 3170,
      "Presentation": 3171,
      "SB": 3172,
      "folder": 3173,
      "gal": 3174,
      "gue": 3175,
      "ience": 3176,
      "year": 3177,
      "Ġing": 3178,
      "Ġeth": 3179,
      "Ġsent": 3180,
      "Ġsummari": 3181,
      "Ġmv": 3182,
      "Ġfl": 3183,
      "Ġfund": 3184,
      "reat": 3185,
      "Ġdisturb": 3186,
      "Ġnumbers": 3187,
      "Ġwr": 3188,
      "estions": 3189,
      "Ġpass": 3190,
      "Ġhop": 3191,
      "arin": 3192,
      "aring": 3193,
      "league": 3194,
      "Ġtelling": 3195,
      "Ġreg": 3196,
      "usr": 3197,
      "001": 3198,
      "umn": 3199,
      "Ġquant": 3200,
      "ĠDe": 3201,
      "ĠMand": 3202,
      "Ġstret": 3203,
      "Ġacross": 3204,
      "unning": 3205,
      "ife": 3206,
      "apsed": 3207,
      "Ġcontains": 3208,
      "Ġshowing": 3209,
      "Ġsays": 3210,
      "Ġchanged": 3211,
      "Ġlocked": 3212,
      "tics": 3213,
      "Ġbrand": 3214,
      "Ġbooks": 3215,
      "Ġsoftly": 3216,
      "Ġelapsed": 3217,
      "Ġcolleague": 3218,
      "Ġsmaller": 3219,
      "Ġroute": 3220,
      "Ġphotosynthesis": 3221,
      "Ġbedtime": 3222,
      "Ġnegotiate": 3223,
      "inerary": 3224,
      "Ġpublic": 3225,
      "ĠTypeError": 3226,
      "Ġingredients": 3227,
      "Ġsummariz": 3228,
      "Ġquantum": 3229,
      "ĠMandarin": 3230,
      "avi": 3231,
      "uggest": 3232,
      "Ġsafe": 3233,
      "reminder": 3234,
      "quick": 3235,
      "19": 3236,
      "By": 3237,
      "Session": 3238,
      "bri": 3239,
      "cont": 3240,
      "ception": 3241,
      "ful": 3242,
      "nec": 3243,
      "pa": 3244,
      "ste": 3245,
      "software": 3246,
      "uation": 3247,
      "ĊĠĠĠĠ": 3248,
      "Ġutil": 3249,
      "Ġsy": 3250,
      "Ġshe": 3251,
      "Ġsorted": 3252,
      "llo": 3253,
      "isable": 3254,
      "ories": 3255,
      "Ġcatch": 3256,
      "ries": 3257,
      "Ġwatch": 3258,
      "Ġhum": 3259,
      "Ġvolumes": 3260,
      "Ġbank": 3261,
      "aces": 3262,
      "update": 3263,
      "Ġland": 3264,
      "ĠSM": 3265,
      "ĠSho": 3266,
      "ĠSession": 3267,
      "Ġ22": 3268,
      "ĠCC": 3269,
      "Ġitinerary": 3270,
      "uname": 3271,
      "vies": 3272,
      "Ġiss": 3273,
      "ifconfig": 3274,
      "Ġcontaining": 3275,
      "ĠBattery": 3276,
      "scription": 3277,
      "oggle": 3278,
      "Ġjane": 3279,
      "ĠJu": 3280,
      "ĠTravel": 3281,
      "Ġfourteen": 3282,
      "Ġlouder": 3283,
      "Ġcompletely": 3284,
      "Apps": 3285,
      "Ġquieter": 3286,
      "ĠRecip": 3287,
      "ĠPlanning": 3288,
      "Ġdownloaded": 3289,
      "ĠDiscuss": 3290,
      "Ġcommands": 3291,
      "ency": 3292,
      "Ġhybri": 3293,
      "Ġfeatures": 3294,
      "Ġautomatically": 3295,
      "Ġlanguage": 3296,
      "Ġeleven": 3297,
      "Ġ];": 3298,
      "Ġanswer": 3299,
      "ByHost": 3300,
      "softwareupdate": 3301,
      "Solve": 3302,
      "os": 3303,
      "ecrease": 3304,
      "ĠSolve": 3305,
      "ĠAc": 3306,
      "temp": 3307,
      "ĠTake": 3308,
      "Ġdisconnect": 3309,
      "ĠInterview": 3310,
      "11": 3311,
      "=$(": 3312,
      "Em": 3313,
      "README": 3314,
      "Th": 3315,
      "aur": 3316,
      "idate": 3317,
      "lord": 3318,
      "man": 3319,
      "ovies": 3320,
      "rint": 3321,
      "sort": 3322,
      "volume": 3323,
      "write": 3324,
      "increase": 3325,
      "Ġmentor": 3326,
      "Ġcar": 3327,
      "Ġcur": 3328,
      "Ġcome": 3329,
      "Ġwarm": 3330,
      "Ġpres": 3331,
      "Ġdoor": 3332,
      "Ġrev": 3333,
      "urance": 3334,
      "ĠSupport": 3335,
      "stand": 3336,
      "ĠDelete": 3337,
      "Ġpromo": 3338,
      "Ġ540": 3339,
      "ĠFollow": 3340,
      "Ġtracks": 3341,
      "Ġ840": 3342,
      "ific": 3343,
      "Ġ6300": 3344,
      "Ġdeep": 3345,
      "aries": 3346,
      "Ġreports": 3347,
      "Ġlegal": 3348,
      "ĠPlans": 3349,
      "oustic": 3350,
      "ĠGr": 3351,
      "ĠGerman": 3352,
      "Ġspec": 3353,
      "Ġsteep": 3354,
      "Ġcores": 3355,
      "Ġmanage": 3356,
      "Ġseeing": 3357,
      "Chrome": 3358,
      "ĠUn": 3359,
      "aby": 3360,
      "Review": 3361,
      "secret": 3362,
      "Ġquietly": 3363,
      "Ġblockchain": 3364,
      "ĠEmpty": 3365,
      "Ġbrowsing": 3366,
      "Ġlooping": 3367,
      "Ġbriefly": 3368,
      "Ġrepair": 3369,
      "ĠOffice": 3370,
      "ĠCoffee": 3371,
      "Contents": 3372,
      "Ġbased": 3373,
      "Ġexercise": 3374,
      "Ġsalary": 3375,
      "Ġsummarizing": 3376,
      "Ġlandlord": 3377,
      "Empty": 3378,
      "Ġfast": 3379,
      "Ġnap": 3380,
      "ĠDentist": 3381,
      "ĠLaunch": 3382,
      "Ġdecrease": 3383,
      "33": 3384,
      "65": 3385,
      "NG": 3386,
      "Ser": 3387,
      "See": 3388,
      "Update": 3389,
      "ase": 3390,
      "ike": 3391,
      "kill": 3392,
      "stics": 3393,
      "tr": 3394,
      "the": 3395,
      "Ġupl": 3396,
      "Ġtaking": 3397,
      "Ġsit": 3398,
      "Ġsqu": 3399,
      "Ġstore": 3400,
      "Ġtouch": 3401,
      "pload": 3402,
      "oud": 3403,
      "meeting": 3404,
      "Ġcare": 3405,
      "Ġcycle": 3406,
      "Ġwed": 3407,
      "iment": 3408,
      "dership": 3409,
      "Ġval": 3410,
      "Ġblueutil": 3411,
      "Ġbaking": 3412,
      "ature": 3413,
      "000": 3414,
      "quarter": 3415,
      "ocal": 3416,
      "stall": 3417,
      "ĠMike": 3418,
      "Ġstati": 3419,
      "Ġglobal": 3420,
      "Ġ'%": 3421,
      "Ġshare": 3422,
      "vide": 3423,
      "vert": 3424,
      "ĠFile": 3425,
      "ĠWeekly": 3426,
      "Ġcomm": 3427,
      "Ġ1020": 3428,
      "Ġchecking": 3429,
      "ĠnewVol": 3430,
      "Ġarrive": 3431,
      "arily": 3432,
      "Ġ1260": 3433,
      "Ġchapter": 3434,
      "ĠPlaylist": 3435,
      "estart": 3436,
      "Ġreviews": 3437,
      "ĠLisa": 3438,
      "Ġimp": 3439,
      "Ġsprint": 3440,
      "Ġlaunching": 3441,
      "ready": 3442,
      "Ġdisabled": 3443,
      "Teams": 3444,
      "Ġ18000": 3445,
      "Ġrole": 3446,
      "Ġalready": 3447,
      "Ġinstru": 3448,
      "Ġconnections": 3449,
      "1234": 3450,
      "Ġserial": 3451,
      "ĠReceipts": 3452,
      "ĠEmma": 3453,
      "Ġconser": 3454,
      "Ġfavorites": 3455,
      "Ġinsurance": 3456,
      "ĠDiscover": 3457,
      "Ġdelayed": 3458,
      "Ġhealthy": 3459,
      "ĠYork": 3460,
      "447": 3461,
      "Ġbasics": 3462,
      "Ġestimate": 3463,
      "Ġexperiment": 3464,
      "Ġexecutive": 3465,
      "Ġstretch": 3466,
      "nection": 3467,
      "step": 3468,
      "Ġhuman": 3469,
      "ĠShopping": 3470,
      "Ġhybrid": 3471,
      "Serial": 3472,
      "Ġwedding": 3473,
      "Ġinstructions": 3474,
      "full": 3475,
      "okay": 3476,
      "ten": 3477,
      "Ġeject": 3478,
      "ĠRet": 3479,
      "ĠReport": 3480,
      "Call": 3481,
      "Classical": 3482,
      "Jazz": 3483,
      "Logs": 3484,
      "PG": 3485,
      "Services": 3486,
      "ade": 3487,
      "aem": 3488,
      "away": 3489,
      "dm": 3490,
      "her": 3491,
      "iv": 3492,
      "kg": 3493,
      "ses": 3494,
      "try": 3495,
      "ually": 3496,
      "Ġ%": 3497,
      "Ġtip": 3498,
      "Ġtesting": 3499,
      "ined": 3500,
      "Ġsour": 3501,
      "ene": 3502,
      "eng": 3503,
      "eriv": 3504,
      "let": 3505,
      "Ġmet": 3506,
      "Ġfailed": 3507,
      "iction": 3508,
      "Ġderiv": 3509,
      "dering": 3510,
      "Ġoce": 3511,
      "Ġhappy": 3512,
      "Ġreas": 3513,
      "Ġrelax": 3514,
      "ĠParty": 3515,
      "ĠPNG": 3516,
      "ĠSam": 3517,
      "oms": 3518,
      "Ġ24": 3519,
      "Ġstr": 3520,
      "ownload": 3521,
      "Ġ8100": 3522,
      "Ġ660": 3523,
      "Ġafterward": 3524,
      "Ġkill": 3525,
      "Ġcontact": 3526,
      "ĠBo": 3527,
      "Ġgoals": 3528,
      "Ġunit": 3529,
      "ĠJen": 3530,
      "Ġsubscription": 3531,
      "Ġscheduled": 3532,
      "last": 3533,
      "Ġpod": 3534,
      "Ġwebsite": 3535,
      "aching": 3536,
      "Ġpriv": 3537,
      "Ġdetailed": 3538,
      "Ġconfirmation": 3539,
      "Ġseventeen": 3540,
      "Ġbeginners": 3541,
      "Ġquarterly": 3542,
      "Ġwondering": 3543,
      "Ġstocks": 3544,
      "Ġretro": 3545,
      "Ġbutt": 3546,
      "Ġautumn": 3547,
      "Ġfirewall": 3548,
      "Ġfeeling": 3549,
      "Ġ21600": 3550,
      "Ġcharg": 3551,
      "\",\"": 3552,
      "curl": 3553,
      "Ġchannel": 3554,
      "Ġidentifier": 3555,
      "diskutil": 3556,
      "mptoms": 3557,
      "Ġsymptoms": 3558,
      "Ġpromotion": 3559,
      "Ġstatistics": 3560,
      "ĠDiscoveries": 3561,
      "tenance": 3562,
      "aemons": 3563,
      "dmg": 3564,
      "Ġderivative": 3565,
      "Ġocean": 3566,
      "Generate": 3567,
      "Take": 3568,
      "hine": 3569,
      "ĠMachine": 3570,
      "ĠGenerate": 3571,
      "--": 3572,
      "Assets": 3573,
      "Core": 3574,
      "Folder": 3575,
      "GSession": 3576,
      "New": 3577,
      "Pri": 3578,
      "VS": 3579,
      "Vault": 3580,
      "Word": 3581,
      "Zip": 3582,
      "call": 3583,
      "eo": 3584,
      "fdes": 3585,
      "loud": 3586,
      "pkg": 3587,
      "summary": 3588,
      "uck": 3589,
      "window": 3590,
      "Ġsti": 3591,
      "Ġslo": 3592,
      "Ġtoget": 3593,
      "Ġdistr": 3594,
      "Ġdiction": 3595,
      "etup": 3596,
      "Ġworld": 3597,
      "ested": 3598,
      "Ġtheore": 3599,
      "image": 3600,
      "Ġhard": 3601,
      "Ġtem": 3602,
      "Ġbig": 3603,
      "Ġbak": 3604,
      "atever": 3605,
      "ateway": 3606,
      "Ġintegr": 3607,
      "Ġlines": 3608,
      "Ġlink": 3609,
      "Ġlife": 3610,
      "Ġeigh": 3611,
      "ĠPresentation": 3612,
      "Ġquestions": 3613,
      "state": 3614,
      "ĠDaily": 3615,
      "Ġstorage": 3616,
      "ĠAssets": 3617,
      "ĠAgenda": 3618,
      "Ġwhatever": 3619,
      "oted": 3620,
      "ĠTom": 3621,
      "ĠExt": 3622,
      "ounds": 3623,
      "onds": 3624,
      "item": 3625,
      "Ġrain": 3626,
      "comm": 3627,
      "Quarter": 3628,
      "script": 3629,
      "Ġthirteen": 3630,
      "ĠGrocer": 3631,
      "posing": 3632,
      "Ġtakeaway": 3633,
      "Ġstopped": 3634,
      "\"})": 3635,
      "Ġoutline": 3636,
      "Ġboil": 3637,
      "ĠTraining": 3638,
      "Ġupdated": 3639,
      "Ġ360": 3640,
      "Ġweb": 3641,
      "Ġmailbox": 3642,
      "acts": 3643,
      "Ġextensions": 3644,
      "Ġinstall": 3645,
      "member": 3646,
      "ĠCompose": 3647,
      "123456": 3648,
      "Ġtests": 3649,
      "ĠWorkout": 3650,
      "ĠZip": 3651,
      "ĠPDFs": 3652,
      "Ġprint": 3653,
      "ĠInvoices": 3654,
      "Compose": 3655,
      "555": 3656,
      "Ġcalculations": 3657,
      "Ġloaded": 3658,
      "bility": 3659,
      "Ġtabs": 3660,
      "Ġunderstand": 3661,
      "Ġinsp": 3662,
      "entials": 3663,
      "csv": 3664,
      "Ġfeels": 3665,
      "Ġ2880": 3666,
      "Ġlearns": 3667,
      "Ġservices": 3668,
      "Ġpostpon": 3669,
      "Ġ1980": 3670,
      "Ġ1740": 3671,
      "Ġsuccess": 3672,
      "Ġclosing": 3673,
      "ĠScreenshots": 3674,
      "Ġrevised": 3675,
      "Ġspecific": 3676,
      "ĠFileVault": 3677,
      "Ġtips": 3678,
      "ength": 3679,
      "Ġafterwards": 3680,
      "CoreServices": 3681,
      "fdesetup": 3682,
      "Ġtogether": 3683,
      "Ġdistrac": 3684,
      "Ġdictionaries": 3685,
      "Ġtheorem": 3686,
      "Ġeighteen": 3687,
      "ĠGrocery": 3688,
      "Ġtakeaways": 3689,
      "Ex": 3690,
      "Report": 3691,
      "build": 3692,
      "ĠMy": 3693,
      "Ġcancel": 3694,
      "Ġact": 3695,
      "Ġtemporarily": 3696,
      "++": 3697,
      "CGSession": 3698,
      "File": 3699,
      "Focus": 3700,
      "MG": 3701,
      "Menu": 3702,
      "Sm": 3703,
      "aus": 3704,
      "cription": 3705,
      "holder": 3706,
      "https": 3707,
      "ition": 3708,
      "json": 3709,
      "menu": 3710,
      "pend": 3711,
      "preadsheet": 3712,
      "ron": 3713,
      "sus": 3714,
      "uous": 3715,
      "Ġ00": 3716,
      "Ġund": 3717,
      "Ġable": 3718,
      "Ġsenti": 3719,
      "env": 3720,
      "onal": 3721,
      "hel": 3722,
      "Ġmile": 3723,
      "Ġmath": 3724,
      "ought": 3725,
      "ouch": 3726,
      "restart": 3727,
      "ational": 3728,
      "Ġcr": 3729,
      "Ġclients": 3730,
      "Ġvery": 3731,
      "Ġhote": 3732,
      "arg": 3733,
      "Ġbonds": 3734,
      "ush": 3735,
      "xtstat": 3736,
      "Ġ200": 3737,
      "ility": 3738,
      "kextstat": 3739,
      "ysis": 3740,
      "asks": 3741,
      "ament": 3742,
      "Ġprofiler": 3743,
      "iring": 3744,
      "Ġappro": 3745,
      "version": 3746,
      "ĠFinance": 3747,
      "\\\":": 3748,
      "Ġcoming": 3749,
      "Ġ~/.": 3750,
      "listall": 3751,
      "Ġnotice": 3752,
      "Ġweeks": 3753,
      "Ġmoved": 3754,
      "ĠHappy": 3755,
      "ProjectX": 3756,
      "Ġ123": 3757,
      "Ġsometime": 3758,
      "Ġuni": 3759,
      "Ġreadable": 3760,
      "reports": 3761,
      "Ġreserv": 3762,
      "Ġ750": 3763,
      "Change": 3764,
      "Ġroomm": 3765,
      "ĠSPBluetooth": 3766,
      "ability": 3767,
      "boot": 3768,
      "Ġgrad": 3769,
      "Ġgraph": 3770,
      "Ġbrowser": 3771,
      "Ġused": 3772,
      "Ġfavorite": 3773,
      "Ġcontinuous": 3774,
      "Ġimprovements": 3775,
      "Ġentries": 3776,
      "Ġflights": 3777,
      "valu": 3778,
      "Ġservice": 3779,
      "Ġrehears": 3780,
      "Ġanalysis": 3781,
      "Ġpassport": 3782,
      "Ġhoping": 3783,
      "paign": 3784,
      "Ġissue": 3785,
      "ĠJuly": 3786,
      "Ġsquare": 3787,
      "letter": 3788,
      "Ġpodcast": 3789,
      "Ġprivacy": 3790,
      "ĠExtras": 3791,
      "Ġpostponed": 3792,
      "suspend": 3793,
      "Ġsentiment": 3794,
      "Ġmilest": 3795,
      "Ġroommate": 3796,
      "ĠSPBluetoothDataType": 3797,
      "Ac": 3798,
      "Sync": 3799,
      "ĠIs": 3800,
      "change": 3801,
      "ĠTop": 3802,
      "plete": 3803,
      "max": 3804,
      "/\\'": 3805,
      "87": 3806,
      "Budget": 3807,
      "Cycle": 3808,
      "Enter": 3809,
      "Force": 3810,
      "Happy": 3811,
      "Indie": 3812,
      "On": 3813,
      "Party": 3814,
      "SV": 3815,
      "Un": 3816,
      "Zoom": 3817,
      "dsc": 3818,
      "gation": 3819,
      "ires": 3820,
      "mount": 3821,
      "mages": 3822,
      "path": 3823,
      "picture": 3824,
      "tar": 3825,
      "tasks": 3826,
      "vice": 3827,
      "vacation": 3828,
      "~/": 3829,
      "ĠâĢ": 3830,
      "utline": 3831,
      "Ġtables": 3832,
      "lement": 3833,
      "org": 3834,
      "Ġdri": 3835,
      "Ġdes": 3836,
      "ets": 3837,
      "Ġcow": 3838,
      "Ġcafe": 3839,
      "ĠtheApps": 3840,
      "Ġones": 3841,
      "Ġthought": 3842,
      "velo": 3843,
      "ĠPers": 3844,
      "Ġ33": 3845,
      "ĠSprint": 3846,
      "ĠSales": 3847,
      "ĠClients": 3848,
      "Ġplays": 3849,
      "Ġstate": 3850,
      "Ġ'~/": 3851,
      "ĠFe": 3852,
      "ĠForce": 3853,
      "plement": 3854,
      "Ġcomput": 3855,
      "Ġsecured": 3856,
      "Ġsecurity": 3857,
      "heduling": 3858,
      "Ġ780": 3859,
      "Ġrad": 3860,
      "Ġnewest": 3861,
      "Ġ630": 3862,
      "emove": 3863,
      "Ġ450": 3864,
      "Ġnobo": 3865,
      "Ġdisc": 3866,
      "Ġsequ": 3867,
      "anglement": 3868,
      "ĠChange": 3869,
      "Ġreadme": 3870,
      "Ġimplement": 3871,
      "Ġwebin": 3872,
      "Ġweather": 3873,
      "Ġmonths": 3874,
      "actor": 3875,
      "sword": 3876,
      "Archived": 3877,
      "ably": 3878,
      "Ġadmin": 3879,
      "Ġpassword": 3880,
      "ĠComputer": 3881,
      "Ġprinter": 3882,
      "efined": 3883,
      "Meetings": 3884,
      "Ġmaintenance": 3885,
      "Ġdifferent": 3886,
      "123456789": 3887,
      "Ġdoesn": 3888,
      "Ġinterfaces": 3889,
      "Ġtimesheet": 3890,
      "Ġexpired": 3891,
      "Ġengine": 3892,
      "Ġoptions": 3893,
      "Ġentanglement": 3894,
      "Product": 3895,
      "Ġclearer": 3896,
      "Ġapology": 3897,
      "Ġreported": 3898,
      "ancakes": 3899,
      "Ġhurts": 3900,
      "Ġmeditate": 3901,
      "Ġdelivery": 3902,
      "Ġfundament": 3903,
      "ĠRecipes": 3904,
      "ĠAcoustic": 3905,
      "Ġimpacts": 3906,
      "commend": 3907,
      "Ġmailboxes": 3908,
      "Ġundefined": 3909,
      "Ġnoticeably": 3910,
      "dscl": 3911,
      "ĠâĢĶ": 3912,
      "ĠPersonal": 3913,
      "Ġnobody": 3914,
      "Ġwebinar": 3915,
      "Switch": 3916,
      "cc": 3917,
      "Ġmax": 3918,
      "ĠIt": 3919,
      "ĠOS": 3920,
      "shut": 3921,
      "Research": 3922,
      "43": 3923,
      "59": 3924,
      "911": 3925,
      "Cloud": 3926,
      "Excel": 3927,
      "Model": 3928,
      "Pr": 3929,
      "PowerPoint": 3930,
      "TP": 3931,
      "Upload": 3932,
      "aver": 3933,
      "cing": 3934,
      "cere": 3935,
      "gage": 3936,
      "lin": 3937,
      "off": 3938,
      "ption": 3939,
      "rainstorm": 3940,
      "schedule": 3941,
      "Ġtable": 3942,
      "Ġtone": 3943,
      "Ġsl": 3944,
      "Ġsup": 3945,
      "Ġslight": 3946,
      "ences": 3947,
      "era": 3948,
      "Ġmus": 3949,
      "Ġmort": 3950,
      "oute": 3951,
      "rew": 3952,
      "ises": 3953,
      "ission": 3954,
      "tection": 3955,
      "Ġword": 3956,
      "ester": 3957,
      "Ġport": 3958,
      "Ġpric": 3959,
      "Ġok": 3960,
      "Ġyester": 3961,
      "Ġvs": 3962,
      "Ġmean": 3963,
      "Ġreset": 3964,
      "Ġreference": 3965,
      "Ġonce": 3966,
      "0000": 3967,
      "xtFiles": 3968,
      "ecurity": 3969,
      "ursive": 3970,
      "ĠSounds": 3971,
      "ĠCont": 3972,
      "ĠClassical": 3973,
      "Ġupcoming": 3974,
      "Ġstud": 3975,
      "aging": 3976,
      "Ġ'#": 3977,
      "Ġ'^": 3978,
      "Ġ960": 3979,
      "akeholder": 3980,
      "ĠEss": 3981,
      "Ġcongr": 3982,
      "Ġcondi": 3983,
      "ĠFlight": 3984,
      "ĠcurrentVol": 3985,
      "Ġ{\"": 3986,
      "Ġbeing": 3987,
      "Ġnothing": 3988,
      "Ġnovel": 3989,
      "peg": 3990,
      "Ġket": 3991,
      "gettime": 3992,
      "type": 3993,
      "Ġass": 3994,
      "Ġdevelo": 3995,
      "ProjectA": 3996,
      "Ġexist": 3997,
      "Ġinterval": 3998,
      "Ġsubtasks": 3999,
      "Ġthanking": 4000,
      "Ġbob": 4001,
      "Ġbooted": 4002,
      "Ġrestore": 4003,
      "Ġresources": 4004,
      "Ġresolution": 4005,
      "Ġnetworks": 4006,
      "Ġnetworking": 4007,
      "Ġ+%": 4008,
      "ĠVersion": 4009,
      "Ġleaves": 4010,
      "Ġmonthly": 4011,
      "movie": 4012,
      "athon": 4013,
      "ĠUI": 4014,
      "Versions": 4015,
      "Ġmedi": 4016,
      "Ġrecently": 4017,
      "Ġidea": 4018,
      "Ġsixteen": 4019,
      "Ġsincere": 4020,
      "Ġrequired": 4021,
      "ĠInception": 4022,
      "Study": 4023,
      "Ġhigher": 4024,
      "Ġcolor": 4025,
      "Ġcolors": 4026,
      "Ġbuilding": 4027,
      "Ġeasy": 4028,
      "ĠAppointment": 4029,
      "Ġpolic": 4030,
      "Ġlose": 4031,
      "Ġroutine": 4032,
      "Ġcontractor": 4033,
      "Ġapologizing": 4034,
      "Ġguest": 4035,
      "server": 4036,
      "ĠOnboarding": 4037,
      "Ġmeditation": 4038,
      "Ġ2024": 4039,
      "Ġpopul": 4040,
      "Ġroadmap": 4041,
      "Ġtroubleshoot": 4042,
      "Ġrecording": 4043,
      "ĊĠĠĠĠĠĠĠ": 4044,
      "Ġwatching": 4045,
      "6543": 4046,
      "Ġconserve": 4047,
      "447911": 4048,
      "Ġreasons": 4049,
      "Ġstrength": 4050,
      "ĠJenna": 4051,
      "Ġstill": 4052,
      "Quarterly": 4053,
      "Ġhotels": 4054,
      "Ġgraduation": 4055,
      "Ġrehearsal": 4056,
      "ĠComputerName": 4057,
      "Ġslightly": 4058,
      "Ġmuscle": 4059,
      "Ġmortgage": 4060,
      "Ġpricing": 4061,
      "Ġyesterday": 4062,
      "ĠEssentials": 4063,
      "Ġcondition": 4064,
      "gettimezone": 4065,
      "447911123456": 4066,
      "Enable": 4067,
      "Is": 4068,
      "It": 4069,
      "Lower": 4070,
      "decrease": 4071,
      "fin": 4072,
      "Ġnavi": 4073,
      "Ġpress": 4074,
      "Ġref": 4075,
      "Ġremember": 4076,
      "Ġrecommend": 4077,
      "ĠSwitch": 4078,
      "Ġtranslate": 4079,
      "ĠLower": 4080,
      "ĠLocal": 4081,
      "Ġactually": 4082,
      ".'": 4083,
      "/'": 4084,
      ":\\\"": 4085,
      "Are": 4086,
      "Application": 4087,
      "Battery": 4088,
      "Before": 4089,
      "De": 4090,
      "Movies": 4091,
      "NR": 4092,
      "NS": 4093,
      "RL": 4094,
      "UID": 4095,
      "Vacation": 4096,
      "aff": 4097,
      "ced": 4098,
      "dn": 4099,
      "dough": 4100,
      "fire": 4101,
      "gi": 4102,
      "gz": 4103,
      "jud": 4104,
      "jpeg": 4105,
      "long": 4106,
      "model": 4107,
      "oting": 4108,
      "page": 4109,
      "photos": 4110,
      "rame": 4111,
      "rutil": 4112,
      "ratch": 4113,
      "route": 4114,
      "su": 4115,
      "tm": 4116,
      "ues": 4117,
      "vm": 4118,
      "wise": 4119,
      "zes": 4120,
      "Ġolder": 4121,
      "Ġago": 4122,
      "ense": 4123,
      "enue": 4124,
      "les": 4125,
      "Ġmen": 4126,
      "ici": 4127,
      "itc": 4128,
      "iting": 4129,
      "orary": 4130,
      "Ġche": 4131,
      "Ġwake": 4132,
      "Ġpdf": 4133,
      "Ġpeo": 4134,
      "Ġvari": 4135,
      "Ġvenue": 4136,
      "Ġbro": 4137,
      "Ġblue": 4138,
      "Ġsetup": 4139,
      "roll": 4140,
      "achel": 4141,
      "Ġlisa": 4142,
      "ech": 4143,
      "ĠSee": 4144,
      "ĠDay": 4145,
      "ĠDinner": 4146,
      "ĠDNS": 4147,
      "Ġ240": 4148,
      "ĠMarch": 4149,
      "ilar": 4150,
      "Ġstand": 4151,
      "Ġstru": 4152,
      "Ġacc": 4153,
      "ĠAP": 4154,
      "orker": 4155,
      "Ġ48": 4156,
      "Ġneeds": 4157,
      "unmute": 4158,
      "Ġ9900": 4159,
      "portant": 4160,
      "oot": 4161,
      "respon": 4162,
      "Ġenc": 4163,
      "\\\"}": 4164,
      "Ġcompany": 4165,
      "Ġsecret": 4166,
      "sition": 4167,
      "ĠtrackName": 4168,
      "Ġ1530": 4169,
      "Ġ1560": 4170,
      "ongr": 4171,
      "ĠRachel": 4172,
      "andidate": 4173,
      "lie": 4174,
      "Ġcontain": 4175,
      "Ġdete": 4176,
      "ĠNo": 4177,
      "ĠHT": 4178,
      "ĠBring": 4179,
      "ĠBefore": 4180,
      "ĠBrainstorm": 4181,
      "Ġtimezone": 4182,
      "Ġgot": 4183,
      "Ġtexting": 4184,
      "Ġunrespon": 4185,
      "ula": 4186,
      "ĠPrejud": 4187,
      "ĠLate": 4188,
      "ĠLibrary": 4189,
      "Ġsizes": 4190,
      "Ġdrafting": 4191,
      "Ġcoaching": 4192,
      "ials": 4193,
      "readme": 4194,
      "ĠartistName": 4195,
      "ĠVacation": 4196,
      "Ġleadership": 4197,
      "HostName": 4198,
      "Ġpayment": 4199,
      "Ġmarket": 4200,
      "Hello": 4201,
      "ĠUUID": 4202,
      "Ġaddresses": 4203,
      "Ġsimilar": 4204,
      "Ġovernight": 4205,
      "Ġ>>": 4206,
      "Ġgrocery": 4207,
      "Ġarticles": 4208,
      "Ġservers": 4209,
      "Ġotherwise": 4210,
      "Ġgreat": 4211,
      "Ġremains": 4212,
      "Ġcollection": 4213,
      "Ġretreat": 4214,
      "Ġrouter": 4215,
      "Ġnewsletter": 4216,
      "Ġrestaur": 4217,
      "ĠRoadmap": 4218,
      "Ġformat": 4219,
      "csrutil": 4220,
      "Ġnearby": 4221,
      "Ġhurting": 4222,
      "racts": 4223,
      "Ġintro": 4224,
      "Designs": 4225,
      "Ġchores": 4226,
      "Ġreceipts": 4227,
      "Ġtroubleshooting": 4228,
      "Presentations": 4229,
      "Ġflour": 4230,
      "contract": 4231,
      "Thanks": 4232,
      "ĠGrand": 4233,
      "Ġmanagement": 4234,
      "Ġcommon": 4235,
      "Ġsourdough": 4236,
      "Ġbakery": 4237,
      "Ġreservation": 4238,
      "Ġgraphics": 4239,
      "valuate": 4240,
      "Ġmilestones": 4241,
      "876543": 4242,
      "Ġcoworker": 4243,
      "Ġradio": 4244,
      "Ġengineer": 4245,
      "lining": 4246,
      "Ġassist": 4247,
      "Ġpopulation": 4248,
      "ĠLocalHostName": 4249,
      "ramework": 4250,
      "Ġpeople": 4251,
      "Ġunresponsive": 4252,
      "ĠPrejudice": 4253,
      "8765432": 4254,
      "Lock": 4255,
      "Restart": 4256,
      "Top": 4257,
      "When": 4258,
      "cut": 4259,
      "crank": 4260,
      "gin": 4261,
      "alright": 4262,
      "ĠSave": 4263,
      "ĠThe": 4264,
      "ĠEnable": 4265,
      "ĠWhen": 4266,
      "email": 4267,
      "complete": 4268,
      "ĠName": 4269,
      "ĠOutline": 4270,
      "ĠLock": 4271,
      "ĠCalculate": 4272,
      "Calculate": 4273,
      "Ġalright": 4274,
      "ĠResearch": 4275,
      "!'": 4276,
      ")?": 4277,
      "6400": 4278,
      "Bring": 4279,
      "CP": 4280,
      "Disable": 4281,
      "Download": 4282,
      "Daemons": 4283,
      "Phone": 4284,
      "Photoshop": 4285,
      "SA": 4286,
      "SM": 4287,
      "Suggest": 4288,
      "Toggle": 4289,
      "Where": 4290,
      "aise": 4291,
      "bile": 4292,
      "djust": 4293,
      "ges": 4294,
      "give": 4295,
      "hip": 4296,
      "hold": 4297,
      "ied": 4298,
      "jour": 4299,
      "lf": 4300,
      "mary": 4301,
      "oy": 4302,
      "ole": 4303,
      "other": 4304,
      "rf": 4305,
      "rup": 4306,
      "rational": 4307,
      "sbin": 4308,
      "Ġ<": 4309,
      "Ġir": 4310,
      "Ġtar": 4311,
      "Ġtick": 4312,
      "Ġtax": 4313,
      "install": 4314,
      "Ġsen": 4315,
      "Ġ\"\"": 4316,
      "Ġmaking": 4317,
      "ending": 4318,
      "itar": 4319,
      "requ": 4320,
      "tional": 4321,
      "ising": 4322,
      "orry": 4323,
      "Ġdownloads": 4324,
      "Ġdiet": 4325,
      "med": 4326,
      "Ġpage": 4327,
      "Ġapart": 4328,
      "Ġsci": 4329,
      "Ġscience": 4330,
      "Ġops": 4331,
      "ĠIndie": 4332,
      "Ġmeet": 4333,
      "Ġmeals": 4334,
      "Ġbal": 4335,
      "Ġbaby": 4336,
      "Ġluck": 4337,
      "Ġtitles": 4338,
      "ĠSuggest": 4339,
      "ĠSecurity": 4340,
      "ĠDisable": 4341,
      "ĠMicrosoft": 4342,
      "ĠCandidate": 4343,
      "ackathon": 4344,
      "Ġplayer": 4345,
      "Ġstakeholder": 4346,
      "Ġmobile": 4347,
      "Ġgateway": 4348,
      "ĠAI": 4349,
      "asive": 4350,
      "ceeded": 4351,
      "Ġpropose": 4352,
      "ddle": 4353,
      "ĠToggle": 4354,
      "Ġpersu": 4355,
      "portun": 4356,
      "ĠEggs": 4357,
      "Ġconcept": 4358,
      "Ġabs": 4359,
      "ipment": 4360,
      "Ġcomposing": 4361,
      "Ġpreview": 4362,
      "aveling": 4363,
      "Ġbeh": 4364,
      "ĠRunning": 4365,
      "Ġusers": 4366,
      "ĠNight": 4367,
      "ĠNumber": 4368,
      "ĠBe": 4369,
      "rast": 4370,
      "lpstat": 4371,
      "Ġplot": 4372,
      "Ġplumber": 4373,
      "inding": 4374,
      "Ġcreated": 4375,
      "Ġifconfig": 4376,
      "Ġjump": 4377,
      "lso": 4378,
      "Ġreviewing": 4379,
      "Ġsubfolder": 4380,
      "Ġposition": 4381,
      "Ġbuying": 4382,
      "ĠThanks": 4383,
      "BackupDrive": 4384,
      "Ġvisibility": 4385,
      "ĠUSB": 4386,
      "Ġprimary": 4387,
      "first": 4388,
      "Ġ1440": 4389,
      "Ġadapt": 4390,
      "Ġadapter": 4391,
      "Ġorganiz": 4392,
      "Ġorganizing": 4393,
      "Ġstudying": 4394,
      "Ġpriorities": 4395,
      "Ġsmart": 4396,
      "ropbox": 4397,
      "Ġdifferences": 4398,
      "ĠEngineering": 4399,
      "netstat": 4400,
      "Resolution": 4401,
      "Ġairport": 4402,
      "Ġexported": 4403,
      "Ġcustom": 4404,
      "Ġmissing": 4405,
      "ĠQA": 4406,
      "Ġopportun": 4407,
      "Ġprogramming": 4408,
      "ĠYes": 4409,
      "Ġ2820": 4410,
      "Ġguitar": 4411,
      "Ġ1320": 4412,
      "Ġkickoff": 4413,
      "ĠOffsite": 4414,
      "Ġestimated": 4415,
      "Ġglare": 4416,
      "Ġsucceeded": 4417,
      "Ġcampaign": 4418,
      "Ġcamera": 4419,
      "iano": 4420,
      "Ġdeliver": 4421,
      "Ġblinding": 4422,
      "Ġeffect": 4423,
      "Ġsentence": 4424,
      "Ġwriting": 4425,
      "Ġutility": 4426,
      "Ġutilities": 4427,
      "ĠSMS": 4428,
      "Ġsteeping": 4429,
      "33123456789": 4430,
      "Ġglobalstate": 4431,
      "ĠBob": 4432,
      "Ġrainy": 4433,
      "Ġinspect": 4434,
      "Ġfundamental": 4435,
      "Printer": 4436,
      "Ġsuppl": 4437,
      "ursively": 4438,
      "Ġstudies": 4439,
      "Ġpolicy": 4440,
      "ongrats": 4441,
      "ĠHTTP": 4442,
      "Ġirrational": 4443,
      "Ġtarget": 4444,
      "Ġpersuasive": 4445,
      "Current": 4446,
      "Save": 4447,
      "before": 4448,
      "Ġbrighten": 4449,
      "/\\\"": 4450,
      "49": 4451,
      "Cond": 4452,
      "Dinner": 4453,
      "Go": 4454,
      "Jan": 4455,
      "Le": 4456,
      "Morning": 4457,
      "OM": 4458,
      "PDF": 4459,
      "bor": 4460,
      "brew": 4461,
      "cript": 4462,
      "dating": 4463,
      "fect": 4464,
      "hy": 4465,
      "hardware": 4466,
      "note": 4467,
      "oe": 4468,
      "pet": 4469,
      "ping": 4470,
      "uary": 4471,
      "uddle": 4472,
      "wind": 4473,
      "Ġzone": 4474,
      "utor": 4475,
      "Ġtired": 4476,
      "Ġalso": 4477,
      "Ġsw": 4478,
      "Ġsing": 4479,
      "Ġsum": 4480,
      "Ġsed": 4481,
      "Ġsame": 4482,
      "Ġsara": 4483,
      "onjour": 4484,
      "tili": 4485,
      "Ġmer": 4486,
      "Ġmade": 4487,
      "llab": 4488,
      "plan": 4489,
      "redu": 4490,
      "isk": 4491,
      "ished": 4492,
      "orus": 4493,
      "Ġdur": 4494,
      "Ġnm": 4495,
      "ribe": 4496,
      "Ġwro": 4497,
      "Ġtheory": 4498,
      "Ġpain": 4499,
      "Ġscratch": 4500,
      "pth": 4501,
      "Ġyog": 4502,
      "Ġhar": 4503,
      "Ġhad": 4504,
      "Ġhand": 4505,
      "Ġhiring": 4506,
      "arse": 4507,
      "Ġdog": 4508,
      "Ġbare": 4509,
      "Ġmins": 4510,
      "Ġred": 4511,
      "Ġrelease": 4512,
      "Ġreac": 4513,
      "Ġrela": 4514,
      "alt": 4515,
      "atul": 4516,
      "Ġthrow": 4517,
      "ĠPri": 4518,
      "ĠSm": 4519,
      "depth": 4520,
      "adjust": 4521,
      "ĠDavi": 4522,
      "edIn": 4523,
      "ĠCSV": 4524,
      "Ġupdating": 4525,
      "ĠfileList": 4526,
      "Ġtrain": 4527,
      "Ġtraff": 4528,
      "Ġgas": 4529,
      "Ġgard": 4530,
      "Ġquitting": 4531,
      "Ġ'[": 4532,
      "une": 4533,
      "vior": 4534,
      "viron": 4535,
      "Ġanother": 4536,
      "Ġisn": 4537,
      "Ġperman": 4538,
      "Ġperfect": 4539,
      "ports": 4540,
      "ĠEnter": 4541,
      "Ġwants": 4542,
      "Ġconcise": 4543,
      "Ġenviron": 4544,
      "Ġoffering": 4545,
      "ippet": 4546,
      "Ġcalories": 4547,
      "cture": 4548,
      "Ġ86400": 4549,
      "202": 4550,
      "ĠnewV": 4551,
      "Ġbeha": 4552,
      "Ġnoise": 4553,
      "ĠROM": 4554,
      "Ġcontrast": 4555,
      "networks": 4556,
      "ĠBread": 4557,
      "ĠBirthday": 4558,
      "Ġchorus": 4559,
      "ĠMacBook": 4560,
      "area": 4561,
      "ĠiPhone": 4562,
      "Ġrepeats": 4563,
      "ording": 4564,
      "lsof": 4565,
      "ĠGo": 4566,
      "ĠGPU": 4567,
      "Ġinterest": 4568,
      "ĠJPG": 4569,
      "ĠLink": 4570,
      "ĠProjectA": 4571,
      "ĠProjectX": 4572,
      "ĠStudy": 4573,
      "Ġreschedule": 4574,
      "Ġ11700": 4575,
      "currentVolume": 4576,
      "Ġhiking": 4577,
      "mod": 4578,
      "TextFiles": 4579,
      "Ġfollowing": 4580,
      "ryption": 4581,
      "ĠHello": 4582,
      "Ġvisit": 4583,
      "Ġalmost": 4584,
      "Ġalarm": 4585,
      "Ġletting": 4586,
      "Ġamount": 4587,
      "Info": 4588,
      "Ġfriends": 4589,
      "Ġcookies": 4590,
      "ĠZoe": 4591,
      "aster": 4592,
      "Ġgreater": 4593,
      "ĠArchived": 4594,
      "Ġprofile": 4595,
      "ĠIntegr": 4596,
      "Ġyears": 4597,
      "Ġvendors": 4598,
      "ĠalbumName": 4599,
      "Ġrenewing": 4600,
      "Ġexpires": 4601,
      "Ġassigned": 4602,
      "Ġassignment": 4603,
      "rrange": 4604,
      "ĠDrafts": 4605,
      "Ġkindly": 4606,
      "ĠConnection": 4607,
      "Ġsurprises": 4608,
      "Connection": 4609,
      "LaunchDaemons": 4610,
      "Ġbasic": 4611,
      "Ġhousehold": 4612,
      "Ġreceive": 4613,
      "Ġsnack": 4614,
      "Ġsnippet": 4615,
      "Ġcompile": 4616,
      "Ġexactly": 4617,
      "ĠKill": 4618,
      "Ġrehearse": 4619,
      "Ġethics": 4620,
      "199": 4621,
      "Ġmentoring": 4622,
      "Ġprescription": 4623,
      "Ġupload": 4624,
      "Ġarrived": 4625,
      "Ġbuttons": 4626,
      "Ġtemplate": 4627,
      "Ġdistracting": 4628,
      "listallhardware": 4629,
      "Ġcontinuously": 4630,
      "maxdepth": 4631,
      "Ġdriving": 4632,
      "Ġthoughtful": 4633,
      "Ġdiscus": 4634,
      "Ġsequence": 4635,
      "Ġslow": 4636,
      "Ġ'^\\": 4637,
      "Ġkettle": 4638,
      "Ġmentions": 4639,
      "ĠAPI": 4640,
      "Ġencryption": 4641,
      "Ġassistant": 4642,
      "requency": 4643,
      "Ġadaptation": 4644,
      "Ġeffects": 4645,
      "Condition": 4646,
      "PDFs": 4647,
      "tilities": 4648,
      "reduce": 4649,
      "Ġduring": 4650,
      "Ġwrote": 4651,
      "Ġyoga": 4652,
      "Ġharsh": 4653,
      "Ġbarely": 4654,
      "Ġrelativity": 4655,
      "ĠDavid": 4656,
      "Ġtraffic": 4657,
      "Ġgarden": 4658,
      "Ġpermanently": 4659,
      "Ġenvironment": 4660,
      "Ġbehavior": 4661,
      "ĠLinkedIn": 4662,
      "listallhardwareports": 4663,
      "Se": 4664,
      "The": 4665,
      "five": 4666,
      "google": 4667,
      "Ġip": 4668,
      "Ġoper": 4669,
      "ĠSleep": 4670,
      "Ġappend": 4671,
      "begin": 4672,
      "Ġpaste": 4673,
      "/*": 4674,
      "/$(": 4675,
      "02": 4676,
      "0199": 4677,
      "13": 4678,
      "86": 4679,
      "==": 4680,
      "AR": 4681,
      "Agenda": 4682,
      "Follow": 4683,
      "JPG": 4684,
      "Low": 4685,
      "Running": 4686,
      "Sort": 4687,
      "URL": 4688,
      "Weekly": 4689,
      "_\"": 4690,
      "_%": 4691,
      "_$(": 4692,
      "aj": 4693,
      "ado": 4694,
      "care": 4695,
      "ches": 4696,
      "fix": 4697,
      "factor": 4698,
      "gic": 4699,
      "gate": 4700,
      "gment": 4701,
      "hand": 4702,
      "hands": 4703,
      "lation": 4704,
      "my": 4705,
      "mar": 4706,
      "main": 4707,
      "nr": 4708,
      "not": 4709,
      "oaded": 4710,
      "ris": 4711,
      "sp": 4712,
      "sis": 4713,
      "saver": 4714,
      "tled": 4715,
      "ug": 4716,
      "vate": 4717,
      "where": 4718,
      "ximate": 4719,
      "Ã©": 4720,
      "Ġess": 4721,
      "ĠQuarterly": 4722,
      "Ġtri": 4723,
      "Ġtid": 4724,
      "Ġtutor": 4725,
      "inished": 4726,
      "Ġsust": 4727,
      "Ġsky": 4728,
      "Ġsorry": 4729,
      "help": 4730,
      "Ġtoast": 4731,
      "leges": 4732,
      "Ġmiti": 4733,
      "Ġmaster": 4734,
      "Ġmaj": 4735,
      "Ġfinder": 4736,
      "Ġfault": 4737,
      "icense": 4738,
      "place": 4739,
      "plied": 4740,
      "itation": 4741,
      "itter": 4742,
      "Ġdx": 4743,
      "Ġdad": 4744,
      "Ġdive": 4745,
      "Ġdaily": 4746,
      "tead": 4747,
      "Ġnorm": 4748,
      "Ġcas": 4749,
      "Ġcity": 4750,
      "Ġcaus": 4751,
      "riend": 4752,
      "Ġwort": 4753,
      "Ġwish": 4754,
      "olute": 4755,
      "esy": 4756,
      "ĠtheCopy": 4757,
      "Ġpi": 4758,
      "Ġpenc": 4759,
      "Ġscheduling": 4760,
      "selection": 4761,
      "Ġhttps": 4762,
      "Ġhackathon": 4763,
      "Ġmeas": 4764,
      "Ġblog": 4765,
      "Ġrewind": 4766,
      "alice": 4767,
      "Ġonline": 4768,
      "ĠPancakes": 4769,
      "uming": 4770,
      "Ġ34": 4771,
      "Ġ39": 4772,
      "Ġ3120": 4773,
      "Ġ3900": 4774,
      "Ġfinishes": 4775,
      "ĠSub": 4776,
      "default": 4777,
      "ocado": 4778,
      "status": 4779,
      "ĠDr": 4780,
      "hod": 4781,
      "ĠMay": 4782,
      "ĠMidnight": 4783,
      "ĠModel": 4784,
      "ĠMovies": 4785,
      "Ġupbe": 4786,
      "keynote": 4787,
      "ournal": 4788,
      "Ġgenerate": 4789,
      "asing": 4790,
      "icken": 4791,
      "Ġprodu": 4792,
      "Ġprocs": 4793,
      "via": 4794,
      "vileges": 4795,
      "ĠTCP": 4796,
      "Ġperio": 4797,
      "versi": 4798,
      "ipset": 4799,
      "Ġ105": 4800,
      "Ġcalls": 4801,
      "Ġ2020": 4802,
      "livia": 4803,
      "Ġlisting": 4804,
      "Ġarg": 4805,
      "Ġ12600": 4806,
      "Ġchill": 4807,
      "Ġchicken": 4808,
      "ĠiCloud": 4809,
      "ĠOlivia": 4810,
      "Ġjazz": 4811,
      "Ġbeforehand": 4812,
      "ĠJess": 4813,
      "ĠLe": 4814,
      "Ġboth": 4815,
      "Ġinvoices": 4816,
      "Ġcollab": 4817,
      "currentVol": 4818,
      "oldname": 4819,
      "Ġlead": 4820,
      "Ġlogo": 4821,
      "Ġ36000": 4822,
      "Chipset": 4823,
      "icalcpu": 4824,
      "Ġprivileges": 4825,
      "Ġavocado": 4826,
      "Ġfindings": 4827,
      "Ġattend": 4828,
      "Ġadvice": 4829,
      "Ġbackups": 4830,
      "OldProjects": 4831,
      "login": 4832,
      "logicalcpu": 4833,
      "Ġconfirming": 4834,
      "Ġshoot": 4835,
      "launchctl": 4836,
      "Ġcreating": 4837,
      "Ġreduced": 4838,
      "Stuff": 4839,
      "Ġbrainstorming": 4840,
      "ĠOldProjects": 4841,
      "Ġlooking": 4842,
      "Ġpreparing": 4843,
      "ĠClientA": 4844,
      "Ġlooks": 4845,
      "Ġthemes": 4846,
      "Ġjobs": 4847,
      "prepare": 4848,
      "physical": 4849,
      "Ġinstead": 4850,
      "nels": 4851,
      "ology": 4852,
      "Ġoption": 4853,
      "Ġpolitely": 4854,
      "timize": 4855,
      "Ġentry": 4856,
      "Ġbusy": 4857,
      "Ġclassical": 4858,
      "Ġattachment": 4859,
      "Ġformula": 4860,
      "Ġlikes": 4861,
      "Ġtechnology": 4862,
      "Ġholidays": 4863,
      "newname": 4864,
      "ĠConference": 4865,
      "MyApp": 4866,
      "ermanently": 4867,
      "Ġchoose": 4868,
      "Ġglaring": 4869,
      "Ġchannels": 4870,
      "Ġtemporary": 4871,
      "ofread": 4872,
      "Ġ2220": 4873,
      "ĠGroup": 4874,
      "Ġfasting": 4875,
      "Ġuploaded": 4876,
      "Ġsituation": 4877,
      "Ġcareer": 4878,
      "Ġvalidate": 4879,
      "fully": 4880,
      "Ġmethod": 4881,
      "Ġbutton": 4882,
      "Pride": 4883,
      "Private": 4884,
      "Ġapproximate": 4885,
      "Ġuniq": 4886,
      "ĠFeature": 4887,
      "Ġprinters": 4888,
      "Ġports": 4889,
      "Ġcongratul": 4890,
      "ĠFlights": 4891,
      "Ġdevelopm": 4892,
      "Ġmedium": 4893,
      "dns": 4894,
      "Ġcheesy": 4895,
      "Ġstructure": 4896,
      "Ġaccording": 4897,
      "Ġrestaurant": 4898,
      "Ġtickets": 4899,
      "installer": 4900,
      "Ġapartment": 4901,
      "Ġproposed": 4902,
      "Ġabsolute": 4903,
      "Ġbehind": 4904,
      "Ġsingle": 4905,
      "gmentation": 4906,
      "Ġtidy": 4907,
      "Ġsustain": 4908,
      "Ġmitigation": 4909,
      "Ġmajor": 4910,
      "Ġworth": 4911,
      "Ġpencil": 4912,
      "Ġmeasure": 4913,
      "Ġupbeat": 4914,
      "Ġperiod": 4915,
      "Ġcollabor": 4916,
      "physicalcpu": 4917,
      "Ġapproximately": 4918,
      "Fire": 4919,
      "Mark": 4920,
      "Remove": 4921,
      "Sleep": 4922,
      "fast": 4923,
      "iMessage": 4924,
      "ĠTimer": 4925,
      "Ġapply": 4926,
      "ĠIdentif": 4927,
      "ected": 4928,
      "Ġgoogle": 4929,
      "this": 4930,
      "ĠEdit": 4931,
      "ĠRestart": 4932,
      "connected": 4933,
      "%'\"": 4934,
      "'?": 4935,
      "'\\\"": 4936,
      "/'\"": 4937,
      "01": 4938,
      "14": 4939,
      "Capture": 4940,
      "Ext": 4941,
      "If": 4942,
      "Inter": 4943,
      "IMG": 4944,
      "Images": 4945,
      "LD": 4946,
      "Pay": 4947,
      "RSS": 4948,
      "Rep": 4949,
      "Sub": 4950,
      "Software": 4951,
      "Spreadsheet": 4952,
      "ader": 4953,
      "ael": 4954,
      "adership": 4955,
      "battery": 4956,
      "bability": 4957,
      "come": 4958,
      "cau": 4959,
      "dol": 4960,
      "fi": 4961,
      "gies": 4962,
      "history": 4963,
      "ible": 4964,
      "mic": 4965,
      "mote": 4966,
      "mission": 4967,
      "ncpu": 4968,
      "pri": 4969,
      "pret": 4970,
      "rn": 4971,
      "spreadsheet": 4972,
      "touch": 4973,
      "vation": 4974,
      "wn": 4975,
      "ww": 4976,
      "xiet": 4977,
      "ĊĠ": 4978,
      "uten": 4979,
      "utri": 4980,
      "Ġtal": 4981,
      "Ġtag": 4982,
      "Ġtire": 4983,
      "Ġterminal": 4984,
      "Ġtakes": 4985,
      "inse": 4986,
      "Ġsite": 4987,
      "Ġside": 4988,
      "Ġsources": 4989,
      "Ġsolution": 4990,
      "eries": 4991,
      "erving": 4992,
      "erformance": 4993,
      "tities": 4994,
      "Ġtom": 4995,
      "Ġmight": 4996,
      "Ġmater": 4997,
      "Ġfant": 4998,
      "ica": 4999,
      "ender": 5000,
      "ended": 5001,
      "reasing": 5002,
      "ision": 5003,
      "oro": 5004,
      "Ġdep": 5005,
      "Ġdaemons": 5006,
      "Ġnested": 5007,
      "Ġnutri": 5008,
      "Ġcp": 5009,
      "Ġcat": 5010,
      "Ġcake": 5011,
      "Ġcold": 5012,
      "Ġcenter": 5013,
      "Ġcras": 5014,
      "oline": 5015,
      "Ġpast": 5016,
      "Ġpiano": 5017,
      "imum": 5018,
      "Ġob": 5019,
      "anted": 5020,
      "anking": 5021,
      "antities": 5022,
      "see": 5023,
      "Ġver": 5024,
      "Ġvac": 5025,
      "Ġvir": 5026,
      "Ġvers": 5027,
      "Ġhuddle": 5028,
      "ĠID": 5029,
      "ĠIf": 5030,
      "ĠInd": 5031,
      "ĠItal": 5032,
      "ĠIMG": 5033,
      "ĠImages": 5034,
      "Ġbin": 5035,
      "Ġbre": 5036,
      "Ġbake": 5037,
      "Ġreboot": 5038,
      "Ġindi": 5039,
      "Ġincomplete": 5040,
      "acing": 5041,
      "Ġonto": 5042,
      "Ġlot": 5043,
      "Ġlarg": 5044,
      "Ġeat": 5045,
      "Ġfinals": 5046,
      "ĠPay": 5047,
      "Ġfil": 5048,
      "ĠSong": 5049,
      "ĠSPU": 5050,
      "Ġquantities": 5051,
      "ocks": 5052,
      "ĠDisplay": 5053,
      "ĠDrive": 5054,
      "ĠDownload": 5055,
      "omod": 5056,
      "hoose": 5057,
      "ĠMari": 5058,
      "ĠMich": 5059,
      "ĠMilk": 5060,
      "ĠCity": 5061,
      "ĠCapture": 5062,
      "ĠCongrats": 5063,
      "Ġtrace": 5064,
      "Ġstay": 5065,
      "Ġstrate": 5066,
      "Ġmodu": 5067,
      "ĠquitList": 5068,
      "ortcut": 5069,
      "ĠArab": 5070,
      "template": 5071,
      "asy": 5072,
      "ascript": 5073,
      "unk": 5074,
      "Ġprompt": 5075,
      "Ġprobability": 5076,
      "ĠanApp": 5077,
      "Ġanxiet": 5078,
      "rowback": 5079,
      "ĠTouch": 5080,
      "Ġ59": 5081,
      "ĠEvening": 5082,
      "Ġcondol": 5083,
      "Ġenough": 5084,
      "Ġenroll": 5085,
      "ĠWel": 5086,
      "\\\";": 5087,
      "Ġoffer": 5088,
      "Ġcomplain": 5089,
      "Ġcompare": 5090,
      "Ġ~\"": 5091,
      "Ġemo": 5092,
      "Ġris": 5093,
      "Ġrinse": 5094,
      "ĠnewFile": 5095,
      "Ġprefix": 5096,
      "Ġ08": 5097,
      "ainer": 5098,
      "nameserver": 5099,
      "Ġbeach": 5100,
      "Ġmessaging": 5101,
      "Ġquicksort": 5102,
      "Ġ2040": 5103,
      "Ġreminding": 5104,
      "Ġadding": 5105,
      "Ġarr": 5106,
      "networktime": 5107,
      "raw": 5108,
      "Ġdisconnected": 5109,
      "Ġexam": 5110,
      "Ġchild": 5111,
      "Ġreporting": 5112,
      "Ġtexts": 5113,
      "Ġliving": 5114,
      "Ġsugg": 5115,
      "ĠOps": 5116,
      "perature": 5117,
      "ĠChris": 5118,
      "Ġjpg": 5119,
      "ĠGood": 5120,
      "Ġinterrup": 5121,
      "ĠJake": 5122,
      "ĠJune": 5123,
      "Ġmuting": 5124,
      "Ġchanging": 5125,
      "ĠLaur": 5126,
      "Ġoutside": 5127,
      "Ġspring": 5128,
      "ĠStatus": 5129,
      "Ġ25200": 5130,
      "Ġ3540": 5131,
      "Ġknows": 5132,
      "Ġincreasing": 5133,
      "Ġ365": 5134,
      "Ġweight": 5135,
      "Ġlogs": 5136,
      "Ġlogical": 5137,
      "Ġlowered": 5138,
      "ĠHealth": 5139,
      "Ġpartners": 5140,
      "ĠProtection": 5141,
      "Ġlasting": 5142,
      "ĠIPv": 5143,
      "Ġbilling": 5144,
      "ganize": 5145,
      "Ġfinishing": 5146,
      "firmed": 5147,
      "Increase": 5148,
      "Install": 5149,
      "Ġbreakfast": 5150,
      "Ġpowered": 5151,
      "Ġresearching": 5152,
      "Ġincluded": 5153,
      "ĠCompany": 5154,
      "Ġfocusing": 5155,
      "Ġnighttime": 5156,
      "ĠInfo": 5157,
      "ĠIncrease": 5158,
      "Ġremaining": 5159,
      "Ġbeginning": 5160,
      "Ġboost": 5161,
      "Ġconsuming": 5162,
      "Temporary": 5163,
      "Ġloan": 5164,
      "Ġloves": 5165,
      "Ġloops": 5166,
      "ized": 5167,
      "Ġvegan": 5168,
      "Ġearly": 5169,
      "Ġaccessories": 5170,
      "Ġrespon": 5171,
      "Drafts": 5172,
      "Shut": 5173,
      "lassics": 5174,
      "Ġrecipes": 5175,
      "Ġdidn": 5176,
      "Ġformal": 5177,
      "Ġclearly": 5178,
      "Ġbooked": 5179,
      "ToReview": 5180,
      "ĠConfirm": 5181,
      "Ġapologize": 5182,
      "Ġ1620": 5183,
      "Ġexpenses": 5184,
      "Ġ2160": 5185,
      "Ġguide": 5186,
      "Ġcharged": 5187,
      "Ġforecast": 5188,
      "ttached": 5189,
      "anced": 5190,
      "Ġhurt": 5191,
      "Ġ1380": 5192,
      "ĠCoach": 5193,
      "istrator": 5194,
      "ighbor": 5195,
      "Ġbase": 5196,
      "Ġexerc": 5197,
      "Ġcompiler": 5198,
      "Ġexperience": 5199,
      "Ġ5551234567": 5200,
      "Ġblocks": 5201,
      "Ġeffici": 5202,
      "ĠShut": 5203,
      "SBDataType": 5204,
      "Ġethical": 5205,
      "Ġwrap": 5206,
      "ĠDebug": 5207,
      "container": 5208,
      "ĠSMC": 5209,
      "Ġ2280": 5210,
      "ĠRecipe": 5211,
      "osascript": 5212,
      "manual": 5213,
      "Ġpreserving": 5214,
      "Ġrepairs": 5215,
      "Ġsitting": 5216,
      "ĠPNGs": 5217,
      "Ġfeelings": 5218,
      "Ġcharging": 5219,
      "Ġslot": 5220,
      "Ġslogan": 5221,
      "Ġtemperature": 5222,
      "Ġintegrate": 5223,
      "Ġinstaller": 5224,
      "Ġsuccessfully": 5225,
      "Ġdistractions": 5226,
      "buildVersion": 5227,
      "args": 5228,
      "Ġcomputing": 5229,
      "Ġmaximum": 5230,
      "Ġguests": 5231,
      "Debug": 5232,
      "tmutil": 5233,
      "Ġdetected": 5234,
      "876543210": 5235,
      "Ġbalanced": 5236,
      "Ġstakeholders": 5237,
      "ĠBeats": 5238,
      "Ġorganization": 5239,
      "Ġsmartphone": 5240,
      "January": 5241,
      "Ġsummer": 5242,
      "Ġpaint": 5243,
      "Ġreaction": 5244,
      "ĠSmith": 5245,
      "Ġgasoline": 5246,
      "ĠIntegrity": 5247,
      "/*\"": 5248,
      "ART": 5249,
      "marine": 5250,
      "spctl": 5251,
      "Ġcauses": 5252,
      "ĠJessica": 5253,
      "ĠLeadership": 5254,
      "Ġcongratulations": 5255,
      "Ġdevelopment": 5256,
      "Firewall": 5257,
      "ĠIdentifier": 5258,
      "RSSI": 5259,
      "Repo": 5260,
      "caught": 5261,
      "Ġmaterials": 5262,
      "Ġfantasy": 5263,
      "Ġnutritional": 5264,
      "Ġcrashed": 5265,
      "Ġvacc": 5266,
      "Ġversus": 5267,
      "ĠItalian": 5268,
      "Ġlarger": 5269,
      "ĠSongs": 5270,
      "ĠSPUSBDataType": 5271,
      "omodoro": 5272,
      "ĠMichael": 5273,
      "ĠArabic": 5274,
      "Ġanxiety": 5275,
      "Ġcondolence": 5276,
      "Ġenrollment": 5277,
      "ĠWelcome": 5278,
      "ĠLaura": 5279,
      "Al": 5280,
      "Build": 5281,
      "Crank": 5282,
      "Let": 5283,
      "Loc": 5284,
      "Mute": 5285,
      "Ret": 5286,
      "Ġfetch": 5287,
      "reply": 5288,
      "Ġwar": 5289,
      "ĠMute": 5290,
      "ĠCrank": 5291,
      "that": 5292,
      "ĠRemove": 5293,
      "explain": 5294,
      "available": 5295,
      "ĠProve": 5296,
      "Ġcalculate": 5297,
      "Prove": 5298,
      "ĠConvert": 5299,
      "Convert": 5300,
      "Ġsnap": 5301,
      "Ġidentify": 5302,
      "Ġflip": 5303,
      "Ġsafely": 5304,
      ",'": 5305,
      "211": 5306,
      "3200": 5307,
      "85": 5308,
      "AC": 5309,
      "AL": 5310,
      "Ag": 5311,
      "Apple": 5312,
      "Dropbox": 5313,
      "EO": 5314,
      "Framework": 5315,
      "HO": 5316,
      "Holiday": 5317,
      "IP": 5318,
      "Item": 5319,
      "Kill": 5320,
      "Lunch": 5321,
      "Look": 5322,
      "Network": 5323,
      "ON": 5324,
      "Po": 5325,
      "Search": 5326,
      "UE": 5327,
      "Utilities": 5328,
      "XX": 5329,
      "\\'\"": 5330,
      "after": 5331,
      "aired": 5332,
      "bers": 5333,
      "bex": 5334,
      "break": 5335,
      "car": 5336,
      "ctive": 5337,
      "ele": 5338,
      "ees": 5339,
      "eve": 5340,
      "emor": 5341,
      "ever": 5342,
      "eace": 5343,
      "fw": 5344,
      "fil": 5345,
      "fun": 5346,
      "files": 5347,
      "framework": 5348,
      "friend": 5349,
      "ging": 5350,
      "global": 5351,
      "gaby": 5352,
      "gateway": 5353,
      "iving": 5354,
      "jus": 5355,
      "joy": 5356,
      "local": 5357,
      "ms": 5358,
      "mut": 5359,
      "mportant": 5360,
      "ob": 5361,
      "oard": 5362,
      "pap": 5363,
      "point": 5364,
      "pace": 5365,
      "rename": 5366,
      "rganize": 5367,
      "save": 5368,
      "song": 5369,
      "sock": 5370,
      "tual": 5371,
      "use": 5372,
      "uce": 5373,
      "ube": 5374,
      "word": 5375,
      "ĠUD": 5376,
      "Ġrow": 5377,
      "ĠUser": 5378,
      "uth": 5379,
      "Ġtent": 5380,
      "Ġtype": 5381,
      "Ġtalk": 5382,
      "ins": 5383,
      "Ġasleep": 5384,
      "Ġsun": 5385,
      "Ġsau": 5386,
      "ernet": 5387,
      "Ġmat": 5388,
      "Ġmount": 5389,
      "Ġmenu": 5390,
      "lling": 5391,
      "Ġfall": 5392,
      "Ġfair": 5393,
      "Ġfact": 5394,
      "plicate": 5395,
      "placing": 5396,
      "iter": 5397,
      "ited": 5398,
      "reg": 5399,
      "remote": 5400,
      "isit": 5401,
      "Ġdess": 5402,
      "Ġnon": 5403,
      "eter": 5404,
      "etfil": 5405,
      "Ġcup": 5406,
      "Ġcir": 5407,
      "Ġcry": 5408,
      "Ġcele": 5409,
      "rib": 5410,
      "rieve": 5411,
      "Ġwere": 5412,
      "ols": 5413,
      "olate": 5414,
      "estion": 5415,
      "ayes": 5416,
      "Ġthesis": 5417,
      "Ġpan": 5418,
      "Ġpull": 5419,
      "Ġpaus": 5420,
      "ptoc": 5421,
      "img": 5422,
      "important": 5423,
      "plications": 5424,
      "anager": 5425,
      "self": 5426,
      "Ġforgi": 5427,
      "Ġhis": 5428,
      "Ġhun": 5429,
      "Ġhire": 5430,
      "Ġhold": 5431,
      "Ġmegaby": 5432,
      "Ġbar": 5433,
      "Ġwithin": 5434,
      "atekeep": 5435,
      "Ġresc": 5436,
      "Ġrelate": 5437,
      "Ġreconnect": 5438,
      "Ġrewrite": 5439,
      "Ġrelation": 5440,
      "Ġreplacing": 5441,
      "algic": 5442,
      "Ġneighbor": 5443,
      "Ġthing": 5444,
      "Ġthread": 5445,
      "Ġlicense": 5446,
      "vels": 5447,
      "xts": 5448,
      "Ġfinanc": 5449,
      "ĠPing": 5450,
      "ĠPort": 5451,
      "ĠPeter": 5452,
      "Ġ37": 5453,
      "ĠSearch": 5454,
      "Ġquestion": 5455,
      "ocolate": 5456,
      "stalgic": 5457,
      "ĠDon": 5458,
      "educe": 5459,
      "ĠMain": 5460,
      "ĠMAC": 5461,
      "ĠManager": 5462,
      "ĠCup": 5463,
      "ĠClassics": 5464,
      "Ġtraveling": 5465,
      "ource": 5466,
      "artner": 5467,
      "Ġstuck": 5468,
      "Ġhomepage": 5469,
      "Ġacade": 5470,
      "ĠApri": 5471,
      "Ġ47": 5472,
      "Ġ4800": 5473,
      "Ġ43200": 5474,
      "Ġopened": 5475,
      "logo": 5476,
      "Ġsharing": 5477,
      "Ġshipment": 5478,
      "unzip": 5479,
      "Ġprovide": 5480,
      "Ġproposing": 5481,
      "Ġprotection": 5482,
      "ecting": 5483,
      "ĠTech": 5484,
      "Ġpermission": 5485,
      "iry": 5486,
      "ression": 5487,
      "Ġconc": 5488,
      "Ġconfirmed": 5489,
      "Ġenjoy": 5490,
      "ĠFamily": 5491,
      "ĠWebsite": 5492,
      "Ġ(\"": 5493,
      "Ġcalm": 5494,
      "Ġcompe": 5495,
      "Ġrender": 5496,
      "Ġsofter": 5497,
      "Ġnostalgic": 5498,
      "terfw": 5499,
      "ĠRub": 5500,
      "Ġgets": 5501,
      "Ġ2018": 5502,
      "getnetworktime": 5503,
      "getglobal": 5504,
      "getremote": 5505,
      "libex": 5506,
      "Ġdef": 5507,
      "Ġdele": 5508,
      "Ġdebu": 5509,
      "ĠNull": 5510,
      "ĠHoliday": 5511,
      "ProjectB": 5512,
      "Ġtwice": 5513,
      "ĠBayes": 5514,
      "Ġpaused": 5515,
      "scribe": 5516,
      "Ġchocolate": 5517,
      "Ġgoes": 5518,
      "Ġsegmentation": 5519,
      "Ġsomewhere": 5520,
      "Ġfilesystem": 5521,
      "duplicate": 5522,
      "ogin": 5523,
      "ĠOK": 5524,
      "Ġmornings": 5525,
      "ĠChines": 5526,
      "80211": 5527,
      "ioreg": 5528,
      "Ġinternal": 5529,
      "veness": 5530,
      "Ġstops": 5531,
      "\"};": 5532,
      "ĠLSA": 5533,
      "Ġimplications": 5534,
      "Ġoutlining": 5535,
      "Ġbother": 5536,
      "Ġinvites": 5537,
      "Ġinvitation": 5538,
      "Ġswitching": 5539,
      "Ġshortly": 5540,
      "ctional": 5541,
      "Ġanyone": 5542,
      "Ġwhenever": 5543,
      "document": 5544,
      "Ġsessions": 5545,
      "ĠVisit": 5546,
      "Ġextract": 5547,
      "Ġrecursively": 5548,
      "ĠRead": 5549,
      "Ġfirm": 5550,
      "Ġlights": 5551,
      "ĠUp": 5552,
      "ĠUpload": 5553,
      "Ġlocally": 5554,
      "gging": 5555,
      "Read": 5556,
      "Relax": 5557,
      "Ġprime": 5558,
      "assport": 5559,
      "Ġoverview": 5560,
      "keeping": 5561,
      "Invoice": 5562,
      "Ġbecome": 5563,
      "Ġadv": 5564,
      "Ġadjus": 5565,
      "Ġraising": 5566,
      "ĠDoe": 5567,
      "ĠReception": 5568,
      "Ġshutting": 5569,
      "?','": 5570,
      "Ġconnecting": 5571,
      "Ġparti": 5572,
      "Ġparent": 5573,
      "Ġworkspace": 5574,
      "Ġpackages": 5575,
      "Ġdirectories": 5576,
      "Ġelectrician": 5577,
      "Ġconsole": 5578,
      "Ġimportance": 5579,
      "Ġannoun": 5580,
      "ĠĠĠĠĠĠĠ": 5581,
      "Ġpharm": 5582,
      "ĠToReview": 5583,
      "Ċĉĉ": 5584,
      "ervice": 5585,
      "Ġexpecting": 5586,
      "Ġdeck": 5587,
      "Ġdeclining": 5588,
      "Ġpairing": 5589,
      "Ġkern": 5590,
      "Ġinvestment": 5591,
      "interEx": 5592,
      "Ġentirely": 5593,
      "Ġviewing": 5594,
      "Ġhealthcare": 5595,
      "Ġhighlights": 5596,
      "ToSort": 5597,
      "Ġ28800": 5598,
      "Ġvegetable": 5599,
      "Ġcharge": 5600,
      "MyDrive": 5601,
      "MyFolder": 5602,
      "Ġconversations": 5603,
      "Ġhygi": 5604,
      "istration": 5605,
      "Contracts": 5606,
      "Ġpresenting": 5607,
      "Ġ2021": 5608,
      "Ġfeature": 5609,
      "ĠKate": 5610,
      "Ġblank": 5611,
      "ĠShared": 5612,
      "Ġethernet": 5613,
      "Ġfunds": 5614,
      "Ġregistration": 5615,
      "Ġsafekeeping": 5616,
      "19876543210": 5617,
      "Ġcatchy": 5618,
      "Ġissues": 5619,
      "ĠJulie": 5620,
      "ĠUncaught": 5621,
      "Reviewed": 5622,
      "Ġstored": 5623,
      "Ġvalues": 5624,
      "Ġconserves": 5625,
      "ĠRetro": 5626,
      "ĠRetreat": 5627,
      "Ġsource": 5628,
      "Ġ2460": 5629,
      "----": 5630,
      "Ġboiling": 5631,
      "Ġcranking": 5632,
      "listallnetworks": 5633,
      "Ġdescription": 5634,
      "ĠFeedback": 5635,
      "Ġadministrator": 5636,
      "Ġmeaning": 5637,
      "ĠContracts": 5638,
      "Ġstrengths": 5639,
      "Ġnavigation": 5640,
      "Ġpressure": 5641,
      "ApplicationFirewall": 5642,
      "Ġbrother": 5643,
      "Ġintrodu": 5644,
      "ĠGrandma": 5645,
      "ĠGrandpa": 5646,
      "SMC": 5647,
      "Ġopportunity": 5648,
      "Ġdeliverables": 5649,
      "Ġsupplies": 5650,
      "Ġtargets": 5651,
      "Ġmerge": 5652,
      "Ġhandle": 5653,
      "2024": 5654,
      "Ġsnacks": 5655,
      "Ġdiscussed": 5656,
      "nrk": 5657,
      "Ġessay": 5658,
      "Ġtutorial": 5659,
      "Ġnormal": 5660,
      "Ġcasual": 5661,
      "PrivateFramework": 5662,
      "Marketing": 5663,
      "External": 5664,
      "Spreadsheets": 5665,
      "Ġtalking": 5666,
      "Ġvirtual": 5667,
      "Ġbinary": 5668,
      "Ġbreath": 5669,
      "ĠMaria": 5670,
      "Ġstrategies": 5671,
      "Ġresponse": 5672,
      "Ġefficient": 5673,
      "Ġsnapshot": 5674,
      "Agents": 5675,
      "HOME": 5676,
      "PointerEx": 5677,
      "functional": 5678,
      "paper": 5679,
      "socketfil": 5680,
      "ĠUDP": 5681,
      "Ġtentative": 5682,
      "Ġsauce": 5683,
      "Ġdessert": 5684,
      "Ġcryptoc": 5685,
      "Ġcelebr": 5686,
      "Ġpausing": 5687,
      "Ġforgiveness": 5688,
      "atekeeper": 5689,
      "Ġrescheduling": 5690,
      "Ġrelated": 5691,
      "Ġrelationship": 5692,
      "Ġacademic": 5693,
      "ĠApril": 5694,
      "getnetworktimeserver": 5695,
      "getglobalstate": 5696,
      "getremotelogin": 5697,
      "libexec": 5698,
      "Ġdebugging": 5699,
      "ĠNullPointerEx": 5700,
      "ĠChinese": 5701,
      "ĠLSAT": 5702,
      "Ġpharmacy": 5703,
      "Ġhygiene": 5704,
      "listallnetworkservices": 5705,
      "PrivateFrameworks": 5706,
      "socketfilterfw": 5707,
      "Ġcryptocurr": 5708,
      "ĠNullPointerException": 5709,
      "Adjust": 5710,
      "Disk": 5711,
      "Evaluate": 5712,
      "Raise": 5713,
      "half": 5714,
      "Ġsolve": 5715,
      "entle": 5716,
      "select": 5717,
      "Ġgentle": 5718,
      "ĠAdjust": 5719,
      "ask": 5720,
      "aste": 5721,
      "ĠEx": 5722,
      "ĠEvaluate": 5723,
      "Ġconvert": 5724,
      "ĠRaise": 5725,
      "append": 5726,
      "ĠUnmute": 5727,
      "trash": 5728,
      "Unmute": 5729,
      "finish": 5730,
      "Ġoperating": 5731,
      "*%'\"": 5732,
      "/.": 5733,
      "/^": 5734,
      "612": 5735,
      "78": 5736,
      "Arrange": 5737,
      "Boot": 5738,
      "Board": 5739,
      "Cam": 5740,
      "Choose": 5741,
      "Date": 5742,
      "Dom": 5743,
      "EL": 5744,
      "EN": 5745,
      "Eng": 5746,
      "Evening": 5747,
      "Gr": 5748,
      "Global": 5749,
      "HEL": 5750,
      "Mem": 5751,
      "More": 5752,
      "No": 5753,
      "OT": 5754,
      "RAM": 5755,
      "SE": 5756,
      "Su": 5757,
      "Shell": 5758,
      "SGlobal": 5759,
      "SHEL": 5760,
      "USB": 5761,
      "WOT": 5762,
      "]+": 5763,
      "]*%'\"": 5764,
      "amin": 5765,
      "bup": 5766,
      "bud": 5767,
      "book": 5768,
      "bts": 5769,
      "base": 5770,
      "ci": 5771,
      "co": 5772,
      "ccur": 5773,
      "dle": 5774,
      "dicate": 5775,
      "dded": 5776,
      "drop": 5777,
      "fl": 5778,
      "fen": 5779,
      "face": 5780,
      "frequency": 5781,
      "gar": 5782,
      "gories": 5783,
      "home": 5784,
      "house": 5785,
      "htm": 5786,
      "halt": 5787,
      "ik": 5788,
      "iCloud": 5789,
      "nock": 5790,
      "overy": 5791,
      "oid": 5792,
      "pad": 5793,
      "ported": 5794,
      "sv": 5795,
      "sync": 5796,
      "sors": 5797,
      "tent": 5798,
      "uri": 5799,
      "vin": 5800,
      "vest": 5801,
      "vCon": 5802,
      "website": 5803,
      "wanted": 5804,
      "xity": 5805,
      "Ġ)": 5806,
      "Ġep": 5807,
      "Ġzoom": 5808,
      "Ġ001": 5809,
      "uture": 5810,
      "Ġty": 5811,
      "Ġtun": 5812,
      "info": 5813,
      "index": 5814,
      "Ġsample": 5815,
      "Ġsaving": 5816,
      "ention": 5817,
      "erform": 5818,
      "Ġ\".\"": 5819,
      "titled": 5820,
      "Ġmic": 5821,
      "Ġmock": 5822,
      "Ġmuse": 5823,
      "llars": 5824,
      "Ġfly": 5825,
      "Ġfrequency": 5826,
      "Ġfuture": 5827,
      "outube": 5828,
      "plist": 5829,
      "ploy": 5830,
      "itness": 5831,
      "itamin": 5832,
      "oubts": 5833,
      "reveal": 5834,
      "isy": 5835,
      "isode": 5836,
      "order": 5837,
      "Ġdraw": 5838,
      "Ġdoubts": 5839,
      "Ġcate": 5840,
      "Ġcost": 5841,
      "Ġcross": 5842,
      "Ġceo": 5843,
      "riving": 5844,
      "Ġwife": 5845,
      "olk": 5846,
      "esti": 5847,
      "ĠtheName": 5848,
      "Ġps": 5849,
      "Ġpages": 5850,
      "Ġpitch": 5851,
      "Ġpancakes": 5852,
      "Ġpending": 5853,
      "Ġpaired": 5854,
      "Ġscene": 5855,
      "imit": 5856,
      "imal": 5857,
      "Ġoil": 5858,
      "Ġocc": 5859,
      "Ġoccur": 5860,
      "Ġvow": 5861,
      "Ġvitamin": 5862,
      "Ġhall": 5863,
      "Ġhalt": 5864,
      "arp": 5865,
      "arage": 5866,
      "Ġteach": 5867,
      "Ġdollars": 5868,
      "Ġmem": 5869,
      "Ġmellow": 5870,
      "Ġbcc": 5871,
      "ates": 5872,
      "leases": 5873,
      "Ġrelaunch": 5874,
      "Ġresign": 5875,
      "Ġinte": 5876,
      "Ġindicate": 5877,
      "rofen": 5878,
      "Ġ135": 5879,
      "doe": 5880,
      "acity": 5881,
      "aches": 5882,
      "Ġnever": 5883,
      "Ġnecess": 5884,
      "Ġthreads": 5885,
      "Ġlay": 5886,
      "ĠPh": 5887,
      "ĠPick": 5888,
      "ĠPau": 5889,
      "ĠPerformance": 5890,
      "ĠPartner": 5891,
      "Ġ345": 5892,
      "uration": 5893,
      "ural": 5894,
      "ursion": 5895,
      "ĠSend": 5896,
      "ĠSan": 5897,
      "ĠSumm": 5898,
      "ĠSWOT": 5899,
      "stam": 5900,
      "ĠDec": 5901,
      "ĠDropbox": 5902,
      "Ġ29": 5903,
      "Ġ260": 5904,
      "Ġ225": 5905,
      "Ġ270": 5906,
      "ĠCF": 5907,
      "ĠCSS": 5908,
      "ĠCla": 5909,
      "ĠCEO": 5910,
      "ilt": 5911,
      "Ġplayed": 5912,
      "Ġtrans": 5913,
      "Ġcance": 5914,
      "Ġstra": 5915,
      "Ġmotivate": 5916,
      "chmod": 5917,
      "Ġhomework": 5918,
      "Ġgir": 5919,
      "Ġgene": 5920,
      "Ġgarage": 5921,
      "Ġactions": 5922,
      "ĠAir": 5923,
      "ĠArch": 5924,
      "ĠASA": 5925,
      "ĠArrange": 5926,
      "Ġ''\"": 5927,
      "Ġ'*.": 5928,
      "Ġshift": 5929,
      "nesses": 5930,
      "ailer": 5931,
      "then": 5932,
      "Ġperform": 5933,
      "ird": 5934,
      "Ġstarter": 5935,
      "resh": 5936,
      "ĠFavorites": 5937,
      "ĠFinished": 5938,
      "ĠWhere": 5939,
      "ondon": 5940,
      "Ġcommit": 5941,
      "itely": 5942,
      "Ġmacbook": 5943,
      "Ġscreensaver": 5944,
      "Ġbelie": 5945,
      "Ġnoisy": 5946,
      "tern": 5947,
      "ĠRun": 5948,
      "ĠRSV": 5949,
      "cessed": 5950,
      "Ġmeetings": 5951,
      "Ġdeb": 5952,
      "ostName": 5953,
      "ĠNSGlobal": 5954,
      "ĠHiring": 5955,
      "ĠHostName": 5956,
      "Ġ\\\"/": 5957,
      "rase": 5958,
      "scode": 5959,
      "Ġshows": 5960,
      "Ġchord": 5961,
      "Ġchmod": 5962,
      "Ġtimestam": 5963,
      "inda": 5964,
      "Ġ/?": 5965,
      "Ġ//'\"": 5966,
      "Ġlevels": 5967,
      "Ġibup": 5968,
      "Ġidle": 5969,
      "1000": 5970,
      "ogn": 5971,
      "Ġputting": 5972,
      "startup": 5973,
      "Ġsugar": 5974,
      "Ġthird": 5975,
      "ĠOLD": 5976,
      "Ġbatch": 5977,
      "Ġunavailable": 5978,
      "Ġunmut": 5979,
      "ular": 5980,
      "Ġ1000000": 5981,
      "otlight": 5982,
      "ssh": 5983,
      "ĠGatekeeper": 5984,
      "ident": 5985,
      "Ġintermit": 5986,
      "Ġreviewed": 5987,
      "ĠJane": 5988,
      "ĠLow": 5989,
      "ĠLove": 5990,
      "ĠLogs": 5991,
      "ĠLondon": 5992,
      "ĠLinda": 5993,
      "Ġbored": 5994,
      "ĠTeach": 5995,
      "Ġspaces": 5996,
      "ĠStuff": 5997,
      "ĠStorage": 5998,
      "Ġhelping": 5999,
      "Ġ2520": 6000,
      "isco": 6001,
      "codebuild": 6002,
      "Ġcoding": 6003,
      "Ġscreenshots": 6004,
      "graph": 6005,
      "Ġ1140": 6006,
      "Ġbug": 6007,
      "Ġbuilt": 6008,
      "Ġlaunchd": 6009,
      "Ġlocking": 6010,
      "Ġclock": 6011,
      "psd": 6012,
      "Ġfox": 6013,
      "docs": 6014,
      "Ġ3630": 6015,
      "beach": 6016,
      "Ġextended": 6017,
      "Ġleaking": 6018,
      "Ġweak": 6019,
      "Ġrecursion": 6020,
      "Teach": 6021,
      "lectron": 6022,
      "ĠRelax": 6023,
      "ĠReleases": 6024,
      "ĠThrowback": 6025,
      "Ġsubjects": 6026,
      "ĠProvide": 6027,
      "latest": 6028,
      "Ġcomplexity": 6029,
      "Ġlocale": 6030,
      "Ġphotograph": 6031,
      "700900": 6032,
      "cpufrequency": 6033,
      "ĠMeetings": 6034,
      "abits": 6035,
      "Ġmedical": 6036,
      "asso": 6037,
      "Ġavoid": 6038,
      "else": 6039,
      "Ġbrown": 6040,
      "OldStuff": 6041,
      "Ġ1860": 6042,
      "Ġpasted": 6043,
      "Ġseries": 6044,
      "Ġnineteen": 6045,
      "Append": 6046,
      "ĠAppleLoc": 6047,
      "Ġspeaking": 6048,
      "Ġspeech": 6049,
      "Ġfully": 6050,
      "Ġactively": 6051,
      "Ġsink": 6052,
      "Ġerrand": 6053,
      "Ġprice": 6054,
      "Ġmemories": 6055,
      "mdutil": 6056,
      "Screen": 6057,
      "ĠFranc": 6058,
      "Ġconfiguration": 6059,
      "Ġdiv": 6060,
      "Standup": 6061,
      "Ġcolumn": 6062,
      "ĠappNames": 6063,
      "ĠAppend": 6064,
      "Ġslideshow": 6065,
      "Ġalbums": 6066,
      "TempFiles": 6067,
      "Ġloss": 6068,
      "Ġannual": 6069,
      "Ġrouting": 6070,
      "Ġxargs": 6071,
      "Ġphrase": 6072,
      "ustomer": 6073,
      "Ġkeyboard": 6074,
      "Ġearbud": 6075,
      "ĠHomebrew": 6076,
      "Ġexpression": 6077,
      "Ġdecision": 6078,
      "projects": 6079,
      "Ġmiss": 6080,
      "Ġincludes": 6081,
      "interface": 6082,
      "Ġcapacity": 6083,
      "Ġoptimize": 6084,
      "Ġfigures": 6085,
      "ĠTempFiles": 6086,
      "ĠTemporary": 6087,
      "andoff": 6088,
      "Ġequations": 6089,
      "Ġequipment": 6090,
      "ĠWarning": 6091,
      "Ġattachments": 6092,
      "Proj": 6093,
      "Provide": 6094,
      "bined": 6095,
      "entially": 6096,
      "Ġbooking": 6097,
      "Ġrenting": 6098,
      "Ġmultiplied": 6099,
      "axes": 6100,
      "Ġ1680": 6101,
      "441234567890": 6102,
      "Ġrandomly": 6103,
      "Ġ'{\\\"": 6104,
      "Ġrecruitment": 6105,
      "ĠMornings": 6106,
      "ether": 6107,
      "Ġlesson": 6108,
      "LaunchAgents": 6109,
      "Ġgifts": 6110,
      "ĠResources": 6111,
      "ĠResults": 6112,
      "Ġsignal": 6113,
      "Ġsigned": 6114,
      "Ġgluten": 6115,
      "Ġ2023": 6116,
      "Ġlanguages": 6117,
      "Ġanalyze": 6118,
      "Ġregex": 6119,
      "Ġregular": 6120,
      "ĠDevCon": 6121,
      "ĊĠĠĠĠĠĠĠĠĠĠĠ": 6122,
      "This": 6123,
      "kills": 6124,
      "traveling": 6125,
      "Ġvalue": 6126,
      "Ġcommun": 6127,
      "447700900": 6128,
      "Ġmetrics": 6129,
      "Ġreason": 6130,
      "Ġrelaxing": 6131,
      "Ġcharger": 6132,
      "Ġbaker": 6133,
      "Ġintegrity": 6134,
      "ĠPresentations": 6135,
      "Ġcrash": 6136,
      "Ġuniversi": 6137,
      "boottime": 6138,
      "Acoustic": 6139,
      "Unzip": 6140,
      "Ġthoughts": 6141,
      "Ġcompute": 6142,
      "Ġsequentially": 6143,
      "Ġcongrats": 6144,
      "ĠVersions": 6145,
      "Ġmedia": 6146,
      "finitely": 6147,
      "itched": 6148,
      "roller": 6149,
      "Ġsensors": 6150,
      "ĠNights": 6151,
      "Ġsubfolders": 6152,
      "Ġopportunities": 6153,
      "Ġsupplier": 6154,
      "ĠHTTPS": 6155,
      "Ġswap": 6156,
      "Ġswitched": 6157,
      "Ġthrows": 6158,
      "Ġ'^\\.": 6159,
      "Ġ'^\\.'": 6160,
      "8613": 6161,
      "Ġwishing": 6162,
      "Ġ3960": 6163,
      "Ġproductive": 6164,
      "Ġarguments": 6165,
      "Ġattendees": 6166,
      "Ġsustainable": 6167,
      "Ġcollaboration": 6168,
      "Submarine": 6169,
      "SoftwareUpdate": 6170,
      "Ġcpu": 6171,
      "Ġpasta": 6172,
      "Ġindie": 6173,
      "Ġfilename": 6174,
      "Ġmodule": 6175,
      "Ġrisks": 6176,
      "Ġarrange": 6177,
      "Ġsuggestions": 6178,
      "Installers": 6179,
      "Ġvaccines": 6180,
      "friendly": 6181,
      "Ġrows": 6182,
      "ĠUserShell": 6183,
      "Ġhung": 6184,
      "Ġmegabytes": 6185,
      "Ġfinancial": 6186,
      "Ġcompeti": 6187,
      "ĠRuby": 6188,
      "Ġdeletion": 6189,
      "Ġbothering": 6190,
      "6129": 6191,
      "Domain": 6192,
      "SHELL": 6193,
      "html": 6194,
      "vestor": 6195,
      "Ġepisode": 6196,
      "Ġtunes": 6197,
      "Ġmuseum": 6198,
      "Ġdrawing": 6199,
      "Ġcategories": 6200,
      "Ġoccurred": 6201,
      "Ġresignation": 6202,
      "Ġnecessary": 6203,
      "ĠPaul": 6204,
      "ĠSummit": 6205,
      "ĠClaire": 6206,
      "Ġcanceled": 6207,
      "Ġstraight": 6208,
      "ĠASAP": 6209,
      "Ġbelieve": 6210,
      "ĠRSVP": 6211,
      "ĠNSGlobalDomain": 6212,
      "Ġchords": 6213,
      "Ġibuprofen": 6214,
      "Ġintermittent": 6215,
      "Ġweaknesses": 6216,
      "lectronic": 6217,
      "Ġphotography": 6218,
      "ĠAppleLocale": 6219,
      "ĠFrancisco": 6220,
      "Ġearbuds": 6221,
      "447700900123": 6222,
      "Ġuniversities": 6223,
      "Brightness": 6224,
      "Break": 6225,
      "Doctor": 6226,
      "Decrease": 6227,
      "Memor": 6228,
      "Permanently": 6229,
      "hi": 6230,
      "oin": 6231,
      "run": 6232,
      "say": 6233,
      "remove": 6234,
      "ĠPermanently": 6235,
      "ĠDecrease": 6236,
      "ĠDisk": 6237,
      "ĠCurrent": 6238,
      "computer": 6239,
      "ĠBrightness": 6240,
      "ĠLet": 6241,
      "ĠVolume": 6242,
      "ĠRefactor": 6243,
      "Refactor": 6244,
      "Screenshot": 6245,
      "Should": 6246,
      "ĠAlright": 6247,
      "ĠShould": 6248,
      "translate": 6249,
      "Ġnavigate": 6250,
      "Select": 6251,
      "Alright": 6252,
      "!/": 6253,
      "\"'": 6254,
      "\".": 6255,
      ")/": 6256,
      ")^": 6257,
      "..": 6258,
      "/$": 6259,
      "05": 6260,
      "61234567890": 6261,
      "71": 6262,
      "712345678": 6263,
      "81": 6264,
      ":'\"": 6265,
      "?\"": 6266,
      "Av": 6267,
      "Attached": 6268,
      "Auth": 6269,
      "Ct": 6270,
      "Code": 6271,
      "Congrats": 6272,
      "Finished": 6273,
      "Good": 6274,
      "Glass": 6275,
      "Important": 6276,
      "Line": 6277,
      "Love": 6278,
      "Mac": 6279,
      "Now": 6280,
      "Notification": 6281,
      "OK": 6282,
      "Out": 6283,
      "PR": 6284,
      "Part": 6285,
      "Pick": 6286,
      "Pod": 6287,
      "RP": 6288,
      "RUE": 6289,
      "Site": 6290,
      "Size": 6291,
      "SIP": 6292,
      "SON": 6293,
      "UR": 6294,
      "UX": 6295,
      "VRAM": 6296,
      "XT": 6297,
      "Yes": 6298,
      "Year": 6299,
      "\\[": 6300,
      "_'": 6301,
      "bl": 6302,
      "bon": 6303,
      "bash": 6304,
      "bot": 6305,
      "bies": 6306,
      "bird": 6307,
      "cu": 6308,
      "cation": 6309,
      "cat": 6310,
      "client": 6311,
      "cribe": 6312,
      "crib": 6313,
      "eet": 6314,
      "fs": 6315,
      "fit": 6316,
      "free": 6317,
      "finance": 6318,
      "gif": 6319,
      "geting": 6320,
      "gers": 6321,
      "gress": 6322,
      "gency": 6323,
      "hile": 6324,
      "ien": 6325,
      "ior": 6326,
      "ient": 6327,
      "iam": 6328,
      "ji": 6329,
      "js": 6330,
      "lh": 6331,
      "lus": 6332,
      "lRSSI": 6333,
      "mail": 6334,
      "mond": 6335,
      "mical": 6336,
      "ned": 6337,
      "ok": 6338,
      "ope": 6339,
      "pay": 6340,
      "pick": 6341,
      "pfire": 6342,
      "potlight": 6343,
      "ren": 6344,
      "rol": 6345,
      "rac": 6346,
      "rgent": 6347,
      "running": 6348,
      "sum": 6349,
      "sers": 6350,
      "sample": 6351,
      "slides": 6352,
      "sub": 6353,
      "sole": 6354,
      "service": 6355,
      "town": 6356,
      "tty": 6357,
      "tors": 6358,
      "uc": 6359,
      "uro": 6360,
      "udo": 6361,
      "uros": 6362,
      "ugg": 6363,
      "uese": 6364,
      "we": 6365,
      "wide": 6366,
      "wners": 6367,
      "witter": 6368,
      "yle": 6369,
      "zhe": 6370,
      "ãģ": 6371,
      "Ġ}": 6372,
      "Ġke": 6373,
      "ĠQu": 6374,
      "utes": 6375,
      "Ġtree": 6376,
      "inion": 6377,
      "inking": 6378,
      "Ġado": 6379,
      "Ġaud": 6380,
      "Ġsys": 6381,
      "Ġsheet": 6382,
      "Ġslog": 6383,
      "Ġsaver": 6384,
      "Ġskills": 6385,
      "ero": 6386,
      "erarch": 6387,
      "ervers": 6388,
      "Ġ\"_": 6389,
      "ony": 6390,
      "heating": 6391,
      "Ġtown": 6392,
      "Ġmar": 6393,
      "llower": 6394,
      "Ġflu": 6395,
      "Ġfash": 6396,
      "Ġfood": 6397,
      "Ġfaste": 6398,
      "ican": 6399,
      "ically": 6400,
      "plane": 6401,
      "rep": 6402,
      "reet": 6403,
      "reem": 6404,
      "orrow": 6405,
      "orries": 6406,
      "Ġdre": 6407,
      "tee": 6408,
      "Ġnud": 6409,
      "Ġnull": 6410,
      "etc": 6411,
      "Ġcer": 6412,
      "Ġcor": 6413,
      "Ġcuri": 6414,
      "rivation": 6415,
      "Ġwall": 6416,
      "Ġworries": 6417,
      "olar": 6418,
      "oldf": 6419,
      "escribe": 6420,
      "PAudio": 6421,
      "Ġpse": 6422,
      "Ġping": 6423,
      "Ġpat": 6424,
      "Ġpur": 6425,
      "Ġpant": 6426,
      "Ġapplied": 6427,
      "imize": 6428,
      "derate": 6429,
      "Ġowners": 6430,
      "imerick": 6431,
      "Ġscripts": 6432,
      "seas": 6433,
      "Ġyet": 6434,
      "ingbird": 6435,
      "Ġvm": 6436,
      "Ġvoc": 6437,
      "Ġhap": 6438,
      "Ġhous": 6439,
      "Ġhob": 6440,
      "Ġhabits": 6441,
      "aren": 6442,
      "Ġteeth": 6443,
      "ĠItem": 6444,
      "Ġdoors": 6445,
      "Ġmech": 6446,
      "Ġmemo": 6447,
      "Ġmeans": 6448,
      "Ġburn": 6449,
      "Ġbud": 6450,
      "Ġbul": 6451,
      "Ġbab": 6452,
      "Ġbonjour": 6453,
      "Ġreplay": 6454,
      "Ġrepe": 6455,
      "Ġinsi": 6456,
      "Ġiniti": 6457,
      "Ġinfinitely": 6458,
      "altern": 6459,
      "domain": 6460,
      "ache": 6461,
      "active": 6462,
      "using": 6463,
      "ushed": 6464,
      "atin": 6465,
      "Ġneare": 6466,
      "Ġneural": 6467,
      "ups": 6468,
      "upiter": 6469,
      "Ġmyself": 6470,
      "Ġthru": 6471,
      "Ġls": 6472,
      "Ġlull": 6473,
      "Ġlength": 6474,
      "Ġlimerick": 6475,
      "quiry": 6476,
      "Ġedu": 6477,
      "Ġecon": 6478,
      "Ġelection": 6479,
      "Ġeuros": 6480,
      "ĠPiano": 6481,
      "ĠPeace": 6482,
      "ĠPassport": 6483,
      "ghts": 6484,
      "Ġ31": 6485,
      "ĠSummary": 6486,
      "ĠSoftware": 6487,
      "ĠSeries": 6488,
      "ĠSpotlight": 6489,
      "ĠSPAudio": 6490,
      "Ġquote": 6491,
      "Ġquotes": 6492,
      "Ġqueries": 6493,
      "style": 6494,
      "ĠDock": 6495,
      "omy": 6496,
      "edit": 6497,
      "Ġ26": 6498,
      "ĠMock": 6499,
      "ĠMentor": 6500,
      "ĠCI": 6501,
      "ĠCountdown": 6502,
      "ĠCatch": 6503,
      "ĠCloud": 6504,
      "iling": 6505,
      "ilos": 6506,
      "ĠfileSize": 6507,
      "Ġtrailer": 6508,
      "ourse": 6509,
      "istance": 6510,
      "arth": 6511,
      "artBattery": 6512,
      "Ġstack": 6513,
      "Ġstress": 6514,
      "Ġmoons": 6515,
      "Ġmoderate": 6516,
      "ysitter": 6517,
      "ysMem": 6518,
      "Ġgrow": 6519,
      "Ġgreen": 6520,
      "Ġgra": 6521,
      "Ġgather": 6522,
      "Ġactiv": 6523,
      "Ġactivity": 6524,
      "ĠAC": 6525,
      "ĠAli": 6526,
      "ĠAlert": 6527,
      "ĠAng": 6528,
      "ĠAttached": 6529,
      "ĠARP": 6530,
      "ags": 6531,
      "agna": 6532,
      "Ġ42": 6533,
      "Ġopens": 6534,
      "ason": 6535,
      "Ġshown": 6536,
      "Ġshower": 6537,
      "allery": 6538,
      "Ġproced": 6539,
      "Ġprogress": 6540,
      "Ġanna": 6541,
      "rowser": 6542,
      "thly": 6543,
      "through": 6544,
      "ĠTemplate": 6545,
      "ĠTRUE": 6546,
      "Ġ56": 6547,
      "Ġ500": 6548,
      "Ġ5700": 6549,
      "Ġappoint": 6550,
      "ooks": 6551,
      "ĠEnd": 6552,
      "ĠEuro": 6553,
      "ĠEarth": 6554,
      "verables": 6555,
      "ressed": 6556,
      "Ġconver": 6557,
      "urrence": 6558,
      "Ġheads": 6559,
      "ĠFi": 6560,
      "ĠFitness": 6561,
      "ewrite": 6562,
      "\\\")": 6563,
      "\\\"}'": 6564,
      "Ġcalculator": 6565,
      "Ġcombined": 6566,
      "Ġ78": 6567,
      "Ġ7700": 6568,
      "sitive": 6569,
      "Ġ~;": 6570,
      "Ġtracking": 6571,
      "Ġmodels": 6572,
      "Ġ15300": 6573,
      "Ġ8400": 6574,
      "ify": 6575,
      "Ġru": 6576,
      "Ġrice": 6577,
      "Ġrush": 6578,
      "Ġchecks": 6579,
      "ĠnewItem": 6580,
      "Ġ644": 6581,
      "Ġprepping": 6582,
      "Ġpretty": 6583,
      "empty": 6584,
      "Ġdowntown": 6585,
      "compare": 6586,
      "comfortable": 6587,
      "Ġplaylists": 6588,
      "getdn": 6589,
      "Ġweekday": 6590,
      "like": 6591,
      "liverables": 6592,
      "Ġusually": 6593,
      "Ġlists": 6594,
      "onts": 6595,
      "Ġarriving": 6596,
      "Ġasks": 6597,
      "rontab": 6598,
      "erts": 6599,
      "ĠNode": 6600,
      "ĠHack": 6601,
      "ĠHire": 6602,
      "150": 6603,
      "1500": 6604,
      "1555": 6605,
      "ĠBig": 6606,
      "ĠBuy": 6607,
      "ĠBase": 6608,
      "ĠBitc": 6609,
      "ĠBoot": 6610,
      "ĠBonjour": 6611,
      "ĠBrowser": 6612,
      "Ġdisks": 6613,
      "Ġexplan": 6614,
      "Ġ125": 6615,
      "Ġlab": 6616,
      "Ġchip": 6617,
      "Ġprocessing": 6618,
      "Ġsea": 6619,
      "Ġsell": 6620,
      "arding": 6621,
      "4567": 6622,
      "ĠiOS": 6623,
      "ĠiMac": 6624,
      "ooky": 6625,
      "ophy": 6626,
      "screensaver": 6627,
      "Ġlibr": 6628,
      "Ġsuitc": 6629,
      "Ġruns": 6630,
      "ĠOAuth": 6631,
      "exError": 6632,
      "ordan": 6633,
      "Ġuncomfortable": 6634,
      "Ġjournal": 6635,
      "otate": 6636,
      "otal": 6637,
      "sservers": 6638,
      "ĠGot": 6639,
      "ĠGlass": 6640,
      "idance": 6641,
      "Ġinterru": 6642,
      "Ġinteresting": 6643,
      "ions": 6644,
      "Ġduplicates": 6645,
      "Ġproperly": 6646,
      "Ġproperty": 6647,
      "ĠJan": 6648,
      "ĠJSON": 6649,
      "ĠJupiter": 6650,
      "ĠJason": 6651,
      "ĠJordan": 6652,
      "ĠLily": 6653,
      "ĠLogin": 6654,
      "ĠLiam": 6655,
      "ĠLuc": 6656,
      "proposal": 6657,
      "ĠProjectB": 6658,
      "ĠTextFiles": 6659,
      "ĠTexts": 6660,
      "Ġspooky": 6661,
      "Ġinvesting": 6662,
      "Ġinvesti": 6663,
      "Ġshortcut": 6664,
      "Ġ900123": 6665,
      "Ġpickup": 6666,
      "Ġmanual": 6667,
      "Ġmanaging": 6668,
      "Ġ$(": 6669,
      "Ġfollower": 6670,
      "tical": 6671,
      "ustry": 6672,
      "console": 6673,
      "ermission": 6674,
      "Ġhierarch": 6675,
      "Ġpointer": 6676,
      "ĠVendor": 6677,
      "Ġstartups": 6678,
      "Ġways": 6679,
      "Ġlogging": 6680,
      "ĠReact": 6681,
      "ĠRemember": 6682,
      "Ġbringing": 6683,
      "Ġrobot": 6684,
      "Calm": 6685,
      "ĠUS": 6686,
      "ĠURL": 6687,
      "ĠUtilities": 6688,
      "Ġalmond": 6689,
      "Ġversions": 6690,
      "Ġlocate": 6691,
      "Ġlocations": 6692,
      "ggies": 6693,
      "ggling": 6694,
      "Ġamb": 6695,
      "Ġagents": 6696,
      "Ġchats": 6697,
      "ĠMeetingNotes": 6698,
      "about": 6699,
      "Ġalign": 6700,
      "Ġsimmer": 6701,
      "made": 6702,
      "Ġoverly": 6703,
      "2000": 6704,
      "Ġeditor": 6705,
      "Incoming": 6706,
      "Inquiry": 6707,
      "Ġbrush": 6708,
      "ĠBackupDrive": 6709,
      "OldProject": 6710,
      "OldVersions": 6711,
      "Ġ1830": 6712,
      "Ġraised": 6713,
      "formula": 6714,
      "appName": 6715,
      "ĠAppleSm": 6716,
      "Ġspeed": 6717,
      "Ġprices": 6718,
      "Ġrequire": 6719,
      "Ġrequires": 6720,
      "Ġshot": 6721,
      "Ġpaths": 6722,
      "ĠInvoice": 6723,
      "ĠIncoming": 6724,
      "ĠInvestor": 6725,
      "MeetingNotes": 6726,
      "Ġbrowsers": 6727,
      "Ġeco": 6728,
      "Ġsearching": 6729,
      "ClientB": 6730,
      "State": 6731,
      "Status": 6732,
      "Storage": 6733,
      "5550": 6734,
      "Ġfeed": 6735,
      "rophone": 6736,
      "agrCt": 6737,
      "ĠOldProject": 6738,
      "ĠOldVersions": 6739,
      "ĠOldStuff": 6740,
      "hazip": 6741,
      "Ġparagraphs": 6742,
      "Ġheartbreak": 6743,
      "Ġloses": 6744,
      "Ġannotate": 6745,
      "ĠReviewed": 6746,
      "olved": 6747,
      "Ġphys": 6748,
      "Ġphilos": 6749,
      "Ġpreferred": 6750,
      "Ġuntitled": 6751,
      "marks": 6752,
      "Ġairplane": 6753,
      "Ġveggies": 6754,
      "Ġaccessible": 6755,
      "Ġdecide": 6756,
      "Ġdecline": 6757,
      "Ġindexing": 6758,
      "Ġdatabase": 6759,
      "Ġloved": 6760,
      "Shortcut": 6761,
      "Ġopinion": 6762,
      "Ġlaptops": 6763,
      "Ġclever": 6764,
      "entific": 6765,
      "Ġbookmarks": 6766,
      "ĠYour": 6767,
      "Ġvegetables": 6768,
      "ĠConf": 6769,
      "Ġ165": 6770,
      "Ġ16200": 6771,
      "PowerState": 6772,
      "ĠAlzhe": 6773,
      "Ġurgently": 6774,
      "Ġlinear": 6775,
      "Ġ2130": 6776,
      "Ġguidance": 6777,
      "Ġrandomness": 6778,
      "nership": 6779,
      "Ġrecruiting": 6780,
      "Conference": 6781,
      "Confirm": 6782,
      "Ġintact": 6783,
      "Ġsignific": 6784,
      "Ġ195": 6785,
      "Ġ19200": 6786,
      "Ġremotely": 6787,
      "Ġnegotiating": 6788,
      "Ġreceiving": 6789,
      "Ġglance": 6790,
      "Ġactionable": 6791,
      "Ġconcentr": 6792,
      "Ġsalt": 6793,
      "Ġcampfire": 6794,
      "Ġcompound": 6795,
      "Ġcompiling": 6796,
      "Ġ5551234": 6797,
      "ĠKaren": 6798,
      "Ġclothing": 6799,
      "Ġeffective": 6800,
      "Ġexecutable": 6801,
      "ĠShortcut": 6802,
      "Ġpassing": 6803,
      "Ġregarding": 6804,
      "ĠDevice": 6805,
      "ĠDeliverables": 6806,
      "Ġstretches": 6807,
      "ĠSMART": 6808,
      "ĠAccount": 6809,
      "Ġtouchpoint": 6810,
      "Ġcareers": 6811,
      "video": 6812,
      "Ġejectable": 6813,
      "Ġstrain": 6814,
      "Ġchargers": 6815,
      "Ġstir": 6816,
      "Ġworldwide": 6817,
      "Ġintegral": 6818,
      "Ġwebpage": 6819,
      "5551234": 6820,
      "Ġinspir": 6821,
      "Ġsuccessful": 6822,
      "Exported": 6823,
      "ĠMyApp": 6824,
      "++?": 6825,
      "Ġ00441234567890": 6826,
      "Ġreservations": 6827,
      "Ġmilestone": 6828,
      "Account": 6829,
      "Ġdescrib": 6830,
      "Ġfundamentals": 6831,
      "Ġwords": 6832,
      "ĠController": 6833,
      "Ġ'#!/": 6834,
      "Ġrefund": 6835,
      "Ġrefactor": 6836,
      "iciency": 6837,
      "Ġchemical": 6838,
      "Ġvariable": 6839,
      "Ġvariety": 6840,
      "Ġstruggling": 6841,
      "Ġrestaurants": 6842,
      "SMART": 6843,
      "rupted": 6844,
      "Ġtaxes": 6845,
      "Ġscientific": 6846,
      "Ġbalance": 6847,
      "Leave": 6848,
      "Ġthrowing": 6849,
      "ĠPride": 6850,
      "Ġreceived": 6851,
      "Ġdiscussion": 6852,
      "uguese": 6853,
      "Ã©sum": 6854,
      "Ġproductivity": 6855,
      "Ġsustainability": 6856,
      "www": 6857,
      "Ġsolutions": 6858,
      "Ġdeprivation": 6859,
      "Ġobject": 6860,
      "Ġverify": 6861,
      "ĠIndustry": 6862,
      "Ġtraceback": 6863,
      "Ġcomplaint": 6864,
      "Ġcomplaints": 6865,
      "Ġemotional": 6866,
      "Ġemoji": 6867,
      "Ġinterruption": 6868,
      "Ġinterruptions": 6869,
      "Ġexercises": 6870,
      "Ġexercising": 6871,
      "Ġwarning": 6872,
      "Ġmatter": 6873,
      "Ġfairness": 6874,
      "Ġcircu": 6875,
      "ĠPortuguese": 6876,
      "Ġconclus": 6877,
      "Ġenjoyed": 6878,
      "Ġdeficiency": 6879,
      "Ġadjusted": 6880,
      "Ġannouncing": 6881,
      "Ġintroducing": 6882,
      "Ġcelebrate": 6883,
      "Ġcryptocurrency": 6884,
      "ENT": 6885,
      "Engineering": 6886,
      "svg": 6887,
      "Ġmicrophone": 6888,
      "Ġoccurrence": 6889,
      "Ġmembers": 6890,
      "Ġintegers": 6891,
      "Ġlayman": 6892,
      "ĠPhysMem": 6893,
      "Ġtransfer": 6894,
      "ĠAirPod": 6895,
      "Ġcommittee": 6896,
      "Ġdebrief": 6897,
      "ognition": 6898,
      "Ġreasonable": 6899,
      "Ġ'^\\.'\"": 6900,
      "8613712345678": 6901,
      "Ġcompetitors": 6902,
      "61298765432": 6903,
      "Ġmuseums": 6904,
      "hidden": 6905,
      "Available": 6906,
      "Partnership": 6907,
      "blank": 6908,
      "slideshow": 6909,
      "udocode": 6910,
      "ugged": 6911,
      "Ġadoption": 6912,
      "Ġsyslog": 6913,
      "Ġslogans": 6914,
      "Ġfashion": 6915,
      "Ġfastest": 6916,
      "icanhazip": 6917,
      "reement": 6918,
      "Ġnudge": 6919,
      "Ġcurious": 6920,
      "Ġwallpaper": 6921,
      "oldfile": 6922,
      "Ġpseudocode": 6923,
      "Ġpantry": 6924,
      "Ġvocals": 6925,
      "Ġhappen": 6926,
      "Ġhobbies": 6927,
      "ĠItems": 6928,
      "Ġmechan": 6929,
      "Ġbudgeting": 6930,
      "Ġbabysitter": 6931,
      "Ġinsights": 6932,
      "alternate": 6933,
      "Ġnearest": 6934,
      "Ġlullaby": 6935,
      "Ġeducation": 6936,
      "Ġeconomy": 6937,
      "ĠSPAudioDataType": 6938,
      "ĠMockingbird": 6939,
      "Ġgrowth": 6940,
      "Ġactivities": 6941,
      "ĠAlias": 6942,
      "ĠAnge": 6943,
      "Ġprocedure": 6944,
      "Ġappointments": 6945,
      "ĠEurope": 6946,
      "getdnsservers": 6947,
      "15551234567": 6948,
      "ĠBitcoin": 6949,
      "Ġexplanation": 6950,
      "Ġsuitcase": 6951,
      "Ġinterrupt": 6952,
      "Ġhierarchy": 6953,
      "Ġalignment": 6954,
      "ĠAppleSmartBattery": 6955,
      "agrCtlRSSI": 6956,
      "Ġphilosophy": 6957,
      "ĠAlzheimer": 6958,
      "Ġdescribing": 6959,
      "ĠControllerPowerState": 6960,
      "Ã©sumÃ©": 6961,
      "Ġcircuit": 6962,
      "Ġconclusions": 6963,
      "ĠAirPods": 6964,
      "Gather": 6965,
      "Outline": 6966,
      "Organize": 6967,
      "Reduce": 6968,
      "Why": 6969,
      "cal": 6970,
      "mac": 6971,
      "summarize": 6972,
      "solve": 6973,
      "onn": 6974,
      "orarily": 6975,
      "Ġpush": 6976,
      "ĠPower": 6977,
      "ĠSe": 6978,
      "Ġproofread": 6979,
      "ĠWhy": 6980,
      "ĠReduce": 6981,
      "ĠHi": 6982,
      "ĠOrganize": 6983,
      "exit": 6984,
      "ĠGather": 6985,
      "forward": 6986,
      "ĠProcess": 6987,
      "ĠComplete": 6988,
      "Ġshutdown": 6989,
      "Process": 6990,
      "ĠInterpret": 6991,
      "quickly": 6992,
      "Active": 6993,
      "Interpret": 6994,
      "Memory": 6995,
      "macOS": 6996,
      "%.": 6997,
      "';": 6998,
      ")\\\"": 6999,
      "+%": 7000,
      ",$": 7001,
      "0123": 7002,
      "1800": 7003,
      "22": 7004,
      "2400": 7005,
      "4600": 7006,
      "485": 7007,
      "66": 7008,
      "614": 7009,
      "79": 7010,
      "760": 7011,
      "84": 7012,
      "89": 7013,
      "840": 7014,
      "98": 7015,
      "918": 7016,
      "919876543210": 7017,
      ":'": 7018,
      ":]": 7019,
      ":/{": 7020,
      ">&": 7021,
      "Ao": 7022,
      "Alex": 7023,
      "Added": 7024,
      "Bus": 7025,
      "Bund": 7026,
      "Bonjour": 7027,
      "Basso": 7028,
      "CC": 7029,
      "Co": 7030,
      "Chat": 7031,
      "Critique": 7032,
      "Caches": 7033,
      "Customer": 7034,
      "CUR": 7035,
      "DO": 7036,
      "Dim": 7037,
      "Doc": 7038,
      "Disc": 7039,
      "Drop": 7040,
      "Daily": 7041,
      "DPR": 7042,
      "EG": 7043,
      "ES": 7044,
      "Eo": 7045,
      "Egg": 7046,
      "Electronic": 7047,
      "FS": 7048,
      "Fetch": 7049,
      "Family": 7050,
      "Got": 7051,
      "Gallery": 7052,
      "HD": 7053,
      "High": 7054,
      "IT": 7055,
      "Id": 7056,
      "Ide": 7057,
      "Journal": 7058,
      "Letter": 7059,
      "Login": 7060,
      "Ms": 7061,
      "Main": 7062,
      "Mission": 7063,
      "MIT": 7064,
      "NF": 7065,
      "OW": 7066,
      "Over": 7067,
      "One": 7068,
      "OLD": 7069,
      "Photo": 7070,
      "PUs": 7071,
      "Performance": 7072,
      "Pomodoro": 7073,
      "Passport": 7074,
      "Perform": 7075,
      "Permission": 7076,
      "PEG": 7077,
      "RM": 7078,
      "RENT": 7079,
      "RÃ©sumÃ©": 7080,
      "Send": 7081,
      "Sho": 7082,
      "Scan": 7083,
      "Sap": 7084,
      "Sales": 7085,
      "Support": 7086,
      "Slides": 7087,
      "Sunday": 7088,
      "Security": 7089,
      "Source": 7090,
      "TA": 7091,
      "TH": 7092,
      "Trip": 7093,
      "Tmp": 7094,
      "Template": 7095,
      "TCP": 7096,
      "Task": 7097,
      "TXT": 7098,
      "Total": 7099,
      "UI": 7100,
      "USE": 7101,
      "VAL": 7102,
      "Wi": 7103,
      "\\|": 7104,
      "_'\"": 7105,
      "aut": 7106,
      "aid": 7107,
      "aven": 7108,
      "ativity": 7109,
      "abe": 7110,
      "cto": 7111,
      "cling": 7112,
      "case": 7113,
      "course": 7114,
      "db": 7115,
      "dim": 7116,
      "due": 7117,
      "dict": 7118,
      "data": 7119,
      "design": 7120,
      "dles": 7121,
      "eq": 7122,
      "eld": 7123,
      "eed": 7124,
      "event": 7125,
      "ease": 7126,
      "fication": 7127,
      "fol": 7128,
      "fessor": 7129,
      "git": 7130,
      "got": 7131,
      "gating": 7132,
      "gacy": 7133,
      "gativity": 7134,
      "hic": 7135,
      "happy": 7136,
      "holar": 7137,
      "ius": 7138,
      "iqu": 7139,
      "ients": 7140,
      "ias": 7141,
      "ibility": 7142,
      "ka": 7143,
      "knock": 7144,
      "ler": 7145,
      "lity": 7146,
      "mb": 7147,
      "mon": 7148,
      "music": 7149,
      "ns": 7150,
      "nv": 7151,
      "nown": 7152,
      "nual": 7153,
      "necho": 7154,
      "nLine": 7155,
      "oic": 7156,
      "oader": 7157,
      "ovation": 7158,
      "pack": 7159,
      "pile": 7160,
      "pages": 7161,
      "pcpu": 7162,
      "pred": 7163,
      "ptimize": 7164,
      "rc": 7165,
      "rt": 7166,
      "rder": 7167,
      "ram": 7168,
      "rator": 7169,
      "rsync": 7170,
      "sg": 7171,
      "shell": 7172,
      "sted": 7173,
      "sketch": 7174,
      "sites": 7175,
      "sletter": 7176,
      "tone": 7177,
      "trip": 7178,
      "taxes": 7179,
      "uing": 7180,
      "ued": 7181,
      "uzz": 7182,
      "var": 7183,
      "vator": 7184,
      "vendor": 7185,
      "water": 7186,
      "watch": 7187,
      "warm": 7188,
      "xx": 7189,
      "xcodebuild": 7190,
      "ya": 7191,
      "ytics": 7192,
      "youtube": 7193,
      "ycling": 7194,
      "zy": 7195,
      "zero": 7196,
      "{}": 7197,
      "};": 7198,
      "Ġ:": 7199,
      "Ġ_": 7200,
      "Ġinput": 7201,
      "Ġur": 7202,
      "Ġig": 7203,
      "Ġurb": 7204,
      "Ġenter": 7205,
      "ĠQuarter": 7206,
      "Ġkeynote": 7207,
      "Ġzero": 7208,
      "utomatic": 7209,
      "Ġtxt": 7210,
      "Ġtack": 7211,
      "Ġtmp": 7212,
      "Ġtie": 7213,
      "Ġtik": 7214,
      "ination": 7215,
      "inet": 7216,
      "into": 7217,
      "iname": 7218,
      "inach": 7219,
      "inish": 7220,
      "invoices": 7221,
      "inste": 7222,
      "Ġaver": 7223,
      "Ġaff": 7224,
      "Ġagr": 7225,
      "Ġalex": 7226,
      "Ġson": 7227,
      "Ġspl": 7228,
      "Ġsurr": 7229,
      "Ġsip": 7230,
      "Ġsli": 7231,
      "Ġsyn": 7232,
      "Ġslack": 7233,
      "Ġsysctl": 7234,
      "Ġsale": 7235,
      "Ġsmo": 7236,
      "Ġslate": 7237,
      "Ġsaid": 7238,
      "enic": 7239,
      "pute": 7240,
      "erver": 7241,
      "ername": 7242,
      "Ġ\"-": 7243,
      "heic": 7244,
      "hest": 7245,
      "hems": 7246,
      "title": 7247,
      "tility": 7248,
      "Ġtodd": 7249,
      "leSh": 7250,
      "Ġmist": 7251,
      "Ġmas": 7252,
      "Ġmap": 7253,
      "Ġmid": 7254,
      "Ġmiles": 7255,
      "Ġmaps": 7256,
      "Ġmatch": 7257,
      "Ġmouse": 7258,
      "Ġmakes": 7259,
      "llust": 7260,
      "Ġfail": 7261,
      "Ġflex": 7262,
      "Ġfruit": 7263,
      "Ġfactor": 7264,
      "Ġfoot": 7265,
      "Ġfolk": 7266,
      "Ġfresh": 7267,
      "Ġfrac": 7268,
      "icating": 7269,
      "icult": 7270,
      "endering": 7271,
      "endns": 7272,
      "ploader": 7273,
      "release": 7274,
      "review": 7275,
      "repr": 7276,
      "research": 7277,
      "reList": 7278,
      "reci": 7279,
      "tioned": 7280,
      "isis": 7281,
      "isor": 7282,
      "isted": 7283,
      "istic": 7284,
      "orch": 7285,
      "orous": 7286,
      "orical": 7287,
      "orations": 7288,
      "orized": 7289,
      "Ġdnd": 7290,
      "Ġdance": 7291,
      "Ġdig": 7292,
      "Ġdest": 7293,
      "Ġdump": 7294,
      "Ġdistance": 7295,
      "tech": 7296,
      "team": 7297,
      "teers": 7298,
      "mesg": 7299,
      "eta": 7300,
      "Ġclea": 7301,
      "Ġcable": 7302,
      "Ġcop": 7303,
      "Ġcase": 7304,
      "Ġcache": 7305,
      "Ġcrontab": 7306,
      "Ġcognition": 7307,
      "rier": 7308,
      "Ġwi": 7309,
      "Ġworry": 7310,
      "Ġwanted": 7311,
      "olun": 7312,
      "olver": 7313,
      "SSH": 7314,
      "PATH": 7315,
      "TODO": 7316,
      "ĠtheSe": 7317,
      "Ġpe": 7318,
      "Ġpot": 7319,
      "Ġpid": 7320,
      "Ġpie": 7321,
      "Ġpane": 7322,
      "Ġpounds": 7323,
      "Ġpomodoro": 7324,
      "Ġpushed": 7325,
      "Ġpuzz": 7326,
      "Ġporch": 7327,
      "Ġsched": 7328,
      "Ġscales": 7329,
      "Ġscore": 7330,
      "Ġscope": 7331,
      "Ġscholar": 7332,
      "ders": 7333,
      "Ġown": 7334,
      "ripts": 7335,
      "enth": 7336,
      "ental": 7337,
      "anal": 7338,
      "anner": 7339,
      "anel": 7340,
      "anna": 7341,
      "anscript": 7342,
      "Ġyoutube": 7343,
      "Ġforgot": 7344,
      "Ġvscode": 7345,
      "Ġvoic": 7346,
      "Ġvolun": 7347,
      "Ġhist": 7348,
      "Ġhig": 7349,
      "Ġhid": 7350,
      "Ġhits": 7351,
      "Ġhandoff": 7352,
      "Ġhaven": 7353,
      "tificate": 7354,
      "aration": 7355,
      "arity": 7356,
      "arge": 7357,
      "arco": 7358,
      "Ġteen": 7359,
      "Ġteaching": 7360,
      "ĠIT": 7361,
      "ĠImportant": 7362,
      "ĠIllust": 7363,
      "Ġdomain": 7364,
      "ndle": 7365,
      "ndro": 7366,
      "Ġbay": 7367,
      "Ġbad": 7368,
      "Ġbound": 7369,
      "Ġbot": 7370,
      "Ġbrea": 7371,
      "Ġbreat": 7372,
      "Ġbrew": 7373,
      "ithub": 7374,
      "Ġminimal": 7375,
      "Ġreor": 7376,
      "Ġrebo": 7377,
      "Ġreopen": 7378,
      "Ġreboo": 7379,
      "Ġreplace": 7380,
      "Ġreversi": 7381,
      "ala": 7382,
      "alog": 7383,
      "ality": 7384,
      "alies": 7385,
      "rog": 7386,
      "road": 7387,
      "room": 7388,
      "Ġ190": 7389,
      "dos": 7390,
      "doctor": 7391,
      "dotes": 7392,
      "acter": 7393,
      "actice": 7394,
      "usan": 7395,
      "username": 7396,
      "Ġonsite": 7397,
      "Ġnegativity": 7398,
      "Ġattem": 7399,
      "Ġthinking": 7400,
      "Ġln": 7401,
      "Ġlas": 7402,
      "Ġlone": 7403,
      "Ġlimit": 7404,
      "Ġlisted": 7405,
      "displaysleep": 7406,
      "ved": 7407,
      "vey": 7408,
      "Ġeig": 7409,
      "Ġears": 7410,
      "Ġfine": 7411,
      "ĠPTO": 7412,
      "ĠPack": 7413,
      "ĠPhoto": 7414,
      "ĠPost": 7415,
      "ĠPhone": 7416,
      "ĠPomodoro": 7417,
      "ĠPerform": 7418,
      "ĠPanel": 7419,
      "ummer": 7420,
      "Ġfield": 7421,
      "ece": 7422,
      "ection": 7423,
      "ecret": 7424,
      "ecdotes": 7425,
      "Ġ375": 7426,
      "Ġ32400": 7427,
      "setairportnetwork": 7428,
      "ĠScan": 7429,
      "ĠSlides": 7430,
      "ĠServer": 7431,
      "ĠSusan": 7432,
      "delete": 7433,
      "debug": 7434,
      "delay": 7435,
      "Ġquality": 7436,
      "admin": 7437,
      "station": 7438,
      "stagr": 7439,
      "ĠDim": 7440,
      "ĠDark": 7441,
      "ĠDownlo": 7442,
      "ĠDave": 7443,
      "ĠDone": 7444,
      "ĠDrop": 7445,
      "ĠDMs": 7446,
      "omalies": 7447,
      "editation": 7448,
      "Ġ27": 7449,
      "hood": 7450,
      "ĠMode": 7451,
      "ĠMorg": 7452,
      "ĠMeet": 7453,
      "ĠMarco": 7454,
      "ames": 7455,
      "ĠCam": 7456,
      "ĠChat": 7457,
      "ĠCritique": 7458,
      "ĠCross": 7459,
      "ĠCustomer": 7460,
      "ĠfileInfo": 7461,
      "Ġtrad": 7462,
      "Ġtranscript": 7463,
      "artment": 7464,
      "Ġcandles": 7465,
      "Ġmotiv": 7466,
      "chfl": 7467,
      "Ġhomemade": 7468,
      "Ġgain": 7469,
      "Ġgener": 7470,
      "Ġgently": 7471,
      "Ġgiving": 7472,
      "Ġitself": 7473,
      "Ġaces": 7474,
      "Ġaccur": 7475,
      "ĠquitApps": 7476,
      "ortVersion": 7477,
      "ĠAnt": 7478,
      "ĠAfter": 7479,
      "ĠAlp": 7480,
      "ĠAdobe": 7481,
      "ĠAug": 7482,
      "ĠAdded": 7483,
      "ĠAndro": 7484,
      "agreement": 7485,
      "Ġ3030": 7486,
      "minar": 7487,
      "ases": 7488,
      "Ġ'_'": 7489,
      "Ġ'+%": 7490,
      "loe": 7491,
      "lot": 7492,
      "lore": 7493,
      "load": 7494,
      "losing": 7495,
      "Ġshared": 7496,
      "aming": 7497,
      "amount": 7498,
      "icket": 7499,
      "unwanted": 7500,
      "untitled": 7501,
      "Ġ99": 7502,
      "Ġ930": 7503,
      "Ġproof": 7504,
      "ddit": 7505,
      "vidu": 7506,
      "ailability": 7507,
      "Ġanecdotes": 7508,
      "Ġanomalies": 7509,
      "mortem": 7510,
      "ĠTown": 7511,
      "ĠTest": 7512,
      "ĠTask": 7513,
      "ĠTwitter": 7514,
      "Ġ53": 7515,
      "Ġ58": 7516,
      "Ġappe": 7517,
      "Ġappreci": 7518,
      "ĠElectronic": 7519,
      "ĠETA": 7520,
      "ĠEinste": 7521,
      "verti": 7522,
      "veral": 7523,
      "oundings": 7524,
      "Ġconf": 7525,
      "Ġconven": 7526,
      "Ġconvin": 7527,
      "urry": 7528,
      "Ġenfor": 7529,
      "Ġheav": 7530,
      "Ġheader": 7531,
      "ĠFetch": 7532,
      "ĠFAL": 7533,
      "Ġabc": 7534,
      "ĠWe": 7535,
      "ĠWeek": 7536,
      "\\\",": 7537,
      "Ġcompon": 7538,
      "Ġsecs": 7539,
      "Ġsections": 7540,
      "Ġ72": 7541,
      "Ġ1050": 7542,
      "Ġ10485": 7543,
      "Ġemper": 7544,
      "Ġ800": 7545,
      "Ġ810": 7546,
      "ĠcurrentId": 7547,
      "listnetworks": 7548,
      "Ġrate": 7549,
      "Ġrsync": 7550,
      "Ġrates": 7551,
      "2079": 7552,
      "etings": 7553,
      "Ġchecked": 7554,
      "Ġcheckins": 7555,
      "Ġnewname": 7556,
      "ĠnewFolder": 7557,
      "Ġnewbor": 7558,
      "Ġ66": 7559,
      "Ġmacos": 7560,
      "Ġprevent": 7561,
      "eml": 7562,
      "ems": 7563,
      "ember": 7564,
      "Ġ09": 7565,
      "Ġ02079": 7566,
      "Ġaller": 7567,
      "Ġcalling": 7568,
      "terna": 7569,
      "ĠRust": 7570,
      "ĠRob": 7571,
      "Ġquickest": 7572,
      "Ġkale": 7573,
      "Ġknock": 7574,
      "getline": 7575,
      "getinfo": 7576,
      "getstartup": 7577,
      "getcomputer": 7578,
      "Ġweeklong": 7579,
      "Ġuses": 7580,
      "Ġusability": 7581,
      "ancel": 7582,
      "inting": 7583,
      "Ġassets": 7584,
      "Ġdeploy": 7585,
      "igner": 7586,
      "ideas": 7587,
      "ĠfrontApp": 7588,
      "ĠNetwork": 7589,
      "ĠNTP": 7590,
      "ĠNVRAM": 7591,
      "arians": 7592,
      "ĠHD": 7593,
      "ĠHar": 7594,
      "ĠHall": 7595,
      "ĠHind": 7596,
      "ĠHop": 7597,
      "ĠHere": 7598,
      "ĠHackathon": 7599,
      "ĠHuddle": 7600,
      "ĠHandoff": 7601,
      "ProjectFolder": 7602,
      "1512345678": 7603,
      "15555": 7604,
      "ĠBut": 7605,
      "ĠBill": 7606,
      "ĠBlu": 7607,
      "ĠBatch": 7608,
      "ĠBasso": 7609,
      "ĠBCC": 7610,
      "Ġ\\\"$(": 7611,
      "Ġdish": 7612,
      "Ġdisease": 7613,
      "Ġdispute": 7614,
      "scrip": 7615,
      "Ġexc": 7616,
      "Ġexpl": 7617,
      "Ġexport": 7618,
      "Ġexams": 7619,
      "Ġexception": 7620,
      "Ġ1230": 7621,
      "Ġchart": 7622,
      "Ġchain": 7623,
      "Ġchunk": 7624,
      "Ġgoal": 7625,
      "Ġseas": 7626,
      "Ġselling": 7627,
      "Ġseveral": 7628,
      "Ġplaces": 7629,
      "Ġplugged": 7630,
      "ĠMacinto": 7631,
      "tings": 7632,
      "456": 7633,
      "Ġ/{": 7634,
      "Ġleg": 7635,
      "ĠiMessages": 7636,
      "opendns": 7637,
      "Ġdocs": 7638,
      "ogy": 7639,
      "amples": 7640,
      "Ġlives": 7641,
      "ĠOver": 7642,
      "ĠOak": 7643,
      "ĠOne": 7644,
      "ĠORM": 7645,
      "ĠOcto": 7646,
      "Ġbatter": 7647,
      "Ġunpl": 7648,
      "Ġuname": 7649,
      "Ġuninter": 7650,
      "Ġunwanted": 7651,
      "Ġsleeping": 7652,
      "ulate": 7653,
      "ulimit": 7654,
      "ĠChloe": 7655,
      "Ġju": 7656,
      "Ġjam": 7657,
      "ssess": 7658,
      "ssue": 7659,
      "ĠGuten": 7660,
      "ĠGDPR": 7661,
      "ĠGUI": 7662,
      "ĠGems": 7663,
      "Ġreadings": 7664,
      "Ġdated": 7665,
      "Ġmachines": 7666,
      "Ġorange": 7667,
      "noreList": 7668,
      "Ġstopping": 7669,
      "pgrep": 7670,
      "ĠJer": 7671,
      "ĠJill": 7672,
      "ĠJami": 7673,
      "ĠJams": 7674,
      "ĠJournal": 7675,
      "ĠJPEG": 7676,
      "ĠJames": 7677,
      "keychain": 7678,
      "Ġsubtitle": 7679,
      "Ġsubscrip": 7680,
      "ĠSettings": 7681,
      "8000": 7682,
      "80013": 7683,
      "ĠLo": 7684,
      "ĠLine": 7685,
      "ĠLive": 7686,
      "ĠLog": 7687,
      "ĠLos": 7688,
      "ĠLicense": 7689,
      "ĠLiter": 7690,
      "ĠLatin": 7691,
      "prod": 7692,
      "profit": 7693,
      "ĠProjectFolder": 7694,
      "ĠrunningApps": 7695,
      "Ġplank": 7696,
      "Ġplanned": 7697,
      "Ġoutgo": 7698,
      "Ġoutstand": 7699,
      "Ġbox": 7700,
      "Ġprojects": 7701,
      "Ġprojector": 7702,
      "Ġspot": 7703,
      "Ġspinach": 7704,
      "Ġinvested": 7705,
      "Ġinvolved": 7706,
      "ProjectsArchive": 7707,
      "ĠStakeholder": 7708,
      "ĠStates": 7709,
      "ĠStreet": 7710,
      "Ġ255": 7711,
      "Ġ2580": 7712,
      "Ġresource": 7713,
      "mergency": 7714,
      "Ġreturning": 7715,
      "Ġcalendars": 7716,
      "Ġcoast": 7717,
      "Ġcozy": 7718,
      "Ġbundle": 7719,
      "PicturesBackup": 7720,
      "Ġpicking": 7721,
      "Ġlaunchpad": 7722,
      "Ġnotch": 7723,
      "Ġclause": 7724,
      "Ġclarity": 7725,
      "Ġincome": 7726,
      "printf": 7727,
      "Ġhires": 7728,
      "Edits": 7729,
      "bel": 7730,
      "bell": 7731,
      "Ġleak": 7732,
      "Ġleast": 7733,
      "Ġleads": 7734,
      "Ġreception": 7735,
      "Ġrecursive": 7736,
      "Ġrecycling": 7737,
      "Team": 7738,
      "Texts": 7739,
      "Ġsynced": 7740,
      "Ġrealistic": 7741,
      "Ġlogic": 7742,
      "Ġ7500": 7743,
      "Ġpaying": 7744,
      "ĠWednesdays": 7745,
      "Ġcounts": 7746,
      "Ġlowercase": 7747,
      "ĠmodDate": 7748,
      "1212": 7749,
      "Health": 7750,
      "Ġroll": 7751,
      "urship": 7752,
      "ĠappsTo": 7753,
      "ĠProposal": 7754,
      "ĠProofread": 7755,
      "ĠProfessor": 7756,
      "ĠUrgent": 7757,
      "ĠUtility": 7758,
      "Ġalong": 7759,
      "Ġaloud": 7760,
      "Ġalterna": 7761,
      "ĠTuesdays": 7762,
      "Ġcompletion": 7763,
      "9012345678": 7764,
      "Ġlocks": 7765,
      "ĠSPSoftware": 7766,
      "ĠSPMemory": 7767,
      "Ġchatting": 7768,
      "2671": 7769,
      "ĠCannot": 7770,
      "assume": 7771,
      "Ġdimmed": 7772,
      "Ġovercoming": 7773,
      "Ġoverrun": 7774,
      "Ġoverseas": 7775,
      "Ġoverdue": 7776,
      "Ġavailability": 7777,
      "Ġ850": 7778,
      "Ġfinding": 7779,
      "tles": 7780,
      "Ġedits": 7781,
      "Ġ12000": 7782,
      "rictions": 7783,
      "Ġattending": 7784,
      "Ġattrib": 7785,
      "Ġ>/": 7786,
      "Inbox": 7787,
      "Integr": 7788,
      "Ġbrave": 7789,
      "Ġbreakup": 7790,
      "Ġadded": 7791,
      "Ġadverti": 7792,
      "Oldies": 7793,
      "OldPhotos": 7794,
      "OldName": 7795,
      "Ġ18900": 7796,
      "logs": 7797,
      "Ġraw": 7798,
      "dibility": 7799,
      "Ġpasscode": 7800,
      "Ġwired": 7801,
      "ĠAppleScript": 7802,
      "ĠactiveApps": 7803,
      "Ġaccountant": 7804,
      "secure": 7805,
      "Ġvibes": 7806,
      "Ġrequested": 7807,
      "Ġeye": 7808,
      "aphics": 7809,
      "ĠRecruit": 7810,
      "ĠRecursively": 7811,
      "Ġshutter": 7812,
      "oding": 7813,
      "ĠInbox": 7814,
      "ĠInstagr": 7815,
      "Ġloudness": 7816,
      "Ġcredibility": 7817,
      "Company": 7818,
      "Ġdiem": 7819,
      "Ġdiabe": 7820,
      "String": 7821,
      "Strategy": 7822,
      "Started": 7823,
      "Ġsms": 7824,
      "Ġlatestbackup": 7825,
      "Ġsorts": 7826,
      "Ġboosted": 7827,
      "Ġstove": 7828,
      "ĠOldies": 7829,
      "ĠOldPhotos": 7830,
      "Recruit": 7831,
      "Recursively": 7832,
      "ĠChecklist": 7833,
      "bump": 7834,
      "Ġimporting": 7835,
      "Ġsilent": 7836,
      "Ġoldname": 7837,
      "nauth": 7838,
      "TempArchive": 7839,
      "buy": 7840,
      "Ġrenovation": 7841,
      "Ġcalculation": 7842,
      "ĠFinalDraft": 7843,
      "Ġrenewal": 7844,
      "zza": 7845,
      "ĠIdea": 7846,
      "FinalDraft": 7847,
      "Resume": 7848,
      "Restore": 7849,
      "Ġxcodebuild": 7850,
      "Ġphras": 7851,
      "Ġtopic": 7852,
      "ĠToday": 7853,
      "ĠToDo": 7854,
      "ĠToSort": 7855,
      "ĠTools": 7856,
      ")))": 7857,
      "ization": 7858,
      "ervised": 7859,
      "Ġvehic": 7860,
      "Ġaccessing": 7861,
      "Ġexpiry": 7862,
      "Ġdecade": 7863,
      "Ġdecorations": 7864,
      "Ġcards": 7865,
      "Ġengaging": 7866,
      "Ġmission": 7867,
      "Ġinvestors": 7868,
      "Ġjoining": 7869,
      "orean": 7870,
      "Ġimproving": 7871,
      "Ġrecipients": 7872,
      "Ġoptim": 7873,
      "ĠDiscovery": 7874,
      "Ġ23400": 7875,
      "Planning": 7876,
      "timate": 7877,
      "poses": 7878,
      "Scripts": 7879,
      "Ġentrepr": 7880,
      "Ġrestarted": 7881,
      "Ġrestrictions": 7882,
      "Ġequal": 7883,
      "Ġpractical": 7884,
      "Roadmap": 7885,
      "Ġcreativity": 7886,
      "Proposal": 7887,
      "Proofread": 7888,
      "ential": 7889,
      "Ġsurvey": 7890,
      "Ġtechniqu": 7891,
      "35840": 7892,
      "Todo": 7893,
      "ToDo": 7894,
      "Tools": 7895,
      "Ġfeel": 7896,
      "Ġwaiting": 7897,
      "ĠSundays": 7898,
      "Ġ285": 7899,
      "Ġvegetarians": 7900,
      "news": 7901,
      "Ġ1665": 7902,
      "Ġnearly": 7903,
      "Ġwalkthrough": 7904,
      "Ġcharacter": 7905,
      "Ġforever": 7906,
      "Ġjotting": 7907,
      "Connec": 7908,
      "encies": 7909,
      "Ġinten": 7910,
      "Ġintended": 7911,
      "Ġintention": 7912,
      "Ġqueued": 7913,
      "ĠResume": 7914,
      "ĠRestore": 7915,
      "ClientAssets": 7916,
      "Ġnegotiation": 7917,
      "cury": 7918,
      "wallpaper": 7919,
      "ĠSSH": 7920,
      "Ġhousewarm": 7921,
      "Ġreceipt": 7922,
      "Ġ2022": 7923,
      "SharedFolder": 7924,
      "Ġsalad": 7925,
      "Ġloading": 7926,
      "Ġelements": 7927,
      "Ġelevator": 7928,
      "Startup": 7929,
      "license": 7930,
      "worker": 7931,
      "Ġclos": 7932,
      "Ġanalogy": 7933,
      "Ġanswers": 7934,
      "ĠScreen": 7935,
      "ĠScripts": 7936,
      "Ġwrong": 7937,
      "Ġwrites": 7938,
      "Ġbookshel": 7939,
      "reminders": 7940,
      "1984": 7941,
      "ĊĠĠĠĠĠ": 7942,
      "Ġhumorous": 7943,
      "ĠShot": 7944,
      "ĠSessions": 7945,
      "Ġhybrids": 7946,
      "Throwback": 7947,
      "Ġcarbon": 7948,
      "Ġcurated": 7949,
      "Ġdoorbell": 7950,
      "Ġrevision": 7951,
      "Ġpromoting": 7952,
      "Ġspecification": 7953,
      "Ġmanageable": 7954,
      "ĠUnzip": 7955,
      "ĠUnited": 7956,
      "ĠCoffeeSho": 7957,
      "Ġfaster": 7958,
      "ĠLaunchpad": 7959,
      "true": 7960,
      "Ġsitter": 7961,
      "Ġsquinting": 7962,
      "Ġimpact": 7963,
      "ĠReturn": 7964,
      "eneurship": 7965,
      "Ġrelaxed": 7966,
      "Ġ2430": 7967,
      "ĠBoard": 7968,
      "ĠBoss": 7969,
      "ĠBody": 7970,
      "Ġprivate": 7971,
      "Ġcharges": 7972,
      "Ġpromotional": 7973,
      "NewName": 7974,
      "pkgs": 7975,
      "pkgutil": 7976,
      "Ġslots": 7977,
      "Ġlinked": 7978,
      "ĠTomorrow": 7979,
      "Ġwebsites": 7980,
      "Ġinspection": 7981,
      "Examples": 7982,
      "ĠMyProject": 7983,
      "ĠMyDrive": 7984,
      "ĠMyNetwork": 7985,
      "Ġcrisis": 7986,
      "Ġhotel": 7987,
      "Ġ2008": 7988,
      "Ġapproval": 7989,
      "Ġapproaching": 7990,
      "\\\":\\\"": 7991,
      "Ġ~/.*": 7992,
      "Ġ1234": 7993,
      "Ġunique": 7994,
      "Ġgraphical": 7995,
      "values": 7996,
      "Ġpodcasts": 7997,
      "Acme": 7998,
      "CycleCount": 7999,
      "Onboarding": 8000,
      "Untitled": 8001,
      "target": 8002,
      "Ġdrill": 8003,
      "Ġdescript": 8004,
      "Ġdesigner": 8005,
      "Ġcomputers": 8006,
      "Ġradius": 8007,
      "Ġdiscuss": 8008,
      "ArchivedProjects": 8009,
      "ĠPersonality": 8010,
      "ccoli": 8011,
      "Practice": 8012,
      "Ġportfol": 8013,
      "ĠControl": 8014,
      "Ġstudents": 8015,
      "Ġketo": 8016,
      "Ġdeveloper": 8017,
      "ProjectAlpha": 8018,
      "Ġexists": 8019,
      "Ġexisting": 8020,
      "Ġsincerely": 8021,
      "Ġpolicies": 8022,
      "Ġconditioning": 8023,
      "Ġrefinance": 8024,
      "Ġrecommendation": 8025,
      "Dev": 8026,
      "Ġmentioned": 8027,
      "Ġpdfs": 8028,
      "Ġvariables": 8029,
      "Ġbroccoli": 8030,
      "Ġaccident": 8031,
      "Ġenclosing": 8032,
      "Ġcontainer": 8033,
      "Ġdetect": 8034,
      "ĠNobel": 8035,
      "Ġformatted": 8036,
      "lfriend": 8037,
      "Ġticket": 8038,
      "Ġsenior": 8039,
      "Ġsensitive": 8040,
      "Ġdietary": 8041,
      "Ġapartments": 8042,
      "Ġscientist": 8043,
      "Ġabsence": 8044,
      "Ġcustomers": 8045,
      "491": 8046,
      "491512345678": 8047,
      "Leaving": 8048,
      "Legacy": 8049,
      "Ġsums": 8050,
      "Ġsarah": 8051,
      "Ġmercury": 8052,
      "Ġreaches": 8053,
      "ĠPrize": 8054,
      "ĠPriya": 8055,
      "Ġtrained": 8056,
      "Ġ'[:": 8057,
      "2023": 8058,
      "Ġinterests": 8059,
      "ĠJPGs": 8060,
      "ĠArchivedProjects": 8061,
      "ĠIntegrate": 8062,
      "Ġenvironmental": 8063,
      "Ġbehavioral": 8064,
      "Segmentation": 8065,
      "Ġoperant": 8066,
      "Following": 8067,
      "myDrive": 8068,
      "Ġessentials": 8069,
      "Ġtrial": 8070,
      "Ġtriage": 8071,
      "Ġtutorials": 8072,
      "Ġnormally": 8073,
      "Ġcases": 8074,
      "Ġpiece": 8075,
      "Ġpizza": 8076,
      "ĠSubject": 8077,
      "ĠSubmarine": 8078,
      "ĠSubscribe": 8079,
      "Ġarguing": 8080,
      "Ġattendance": 8081,
      "loginwindow": 8082,
      "Ġaccordingly": 8083,
      "ĠEdits": 8084,
      "1415555": 8085,
      "Interested": 8086,
      "Payment": 8087,
      "Subscription": 8088,
      "Ġdepartment": 8089,
      "Ġobvious": 8090,
      "ĠIndexError": 8091,
      "Ġindividu": 8092,
      "ĠDisplays": 8093,
      "Ġstaying": 8094,
      "Ġmodules": 8095,
      "unknown": 8096,
      "Ġprompting": 8097,
      "ĠTouchpoint": 8098,
      "Ġarrang": 8099,
      "Ġchildren": 8100,
      "ĠGoodies": 8101,
      "Ġpartnership": 8102,
      "Ġvaccine": 8103,
      "Return": 8104,
      "LookExamples": 8105,
      "ONE": 8106,
      "XXXX": 8107,
      "carpe": 8108,
      "carrier": 8109,
      "eaceful": 8110,
      "saved": 8111,
      "Ġsunset": 8112,
      "Ġmatches": 8113,
      "Ġmountains": 8114,
      "Ġnonprofit": 8115,
      "Ġcups": 8116,
      "Ġcircle": 8117,
      "Ġpanel": 8118,
      "Ġreconnecting": 8119,
      "Ġneighborhood": 8120,
      "Ġ3720": 8121,
      "Ġpermissions": 8122,
      "Ġdefined": 8123,
      "Ġfirmware": 8124,
      "Readme": 8125,
      "Ġbecomes": 8126,
      "Ġadvance": 8127,
      "Ġadvisor": 8128,
      "Ġadjusting": 8129,
      "Ġpartition": 8130,
      "Ġpartitions": 8131,
      "Ġannounce": 8132,
      "erviceorder": 8133,
      "--------": 8134,
      "Ġintroduction": 8135,
      "Ġbreathing": 8136,
      "Ġcryptocurrencies": 8137,
      "Campaign": 8138,
      "Camera": 8139,
      "Graphics": 8140,
      "]+%'\"": 8141,
      "Ġtyping": 8142,
      "Ġ\".\")": 8143,
      "Ġcosts": 8144,
      "olklore": 8145,
      "ĠtheNames": 8146,
      "Ġvows": 8147,
      "ĠDecember": 8148,
      "Ġ22500": 8149,
      "ĠCFO": 8150,
      "ĠCFBund": 8151,
      "Ġgirl": 8152,
      "Ġgirlfriend": 8153,
      "ĠArchitecture": 8154,
      "Ġtimestamp": 8155,
      "Ġtimestamps": 8156,
      "ĠidleTime": 8157,
      "Ġunmuting": 8158,
      "Ġunmuted": 8159,
      "ĠRelaxation": 8160,
      "Ġdecisions": 8161,
      "ProjA": 8162,
      "ProjB": 8163,
      "Ġcommunication": 8164,
      "Ġcommunicating": 8165,
      "Ġcrashing": 8166,
      "Unzipped": 8167,
      "819012345678": 8168,
      "Output": 8169,
      "\\[/{": 8170,
      "iens": 8171,
      "subscribe": 8172,
      "well": 8173,
      "Ġkeys": 8174,
      "Ġaudible": 8175,
      "Ġmarathon": 8176,
      "Ġdreams": 8177,
      "Ġpatents": 8178,
      "Ġpurposes": 8179,
      "Ġhouses": 8180,
      "Ġbullet": 8181,
      "Ġreplaying": 8182,
      "Ġrepeated": 8183,
      "Ġinitiate": 8184,
      "Ġgraders": 8185,
      "Ġrule": 8186,
      "Ġlibrarian": 8187,
      "ĠJanuary": 8188,
      "ĠLucy": 8189,
      "Ġinvestigate": 8190,
      "Ġambience": 8191
    },
    "merges": [
      [
        "u",
        "t"
      ],
      [
        "Ġ",
        "t"
      ],
      [
        "<",
        "|"
      ],
      [
        "|",
        ">"
      ],
      [
        "i",
        "n"
      ],
      [
        "Ġ",
        "a"
      ],
      [
        "Ġ",
        "s"
      ],
      [
        "e",
        "n"
      ],
      [
        "p",
        "ut"
      ],
      [
        "e",
        "r"
      ],
      [
        "Ġ",
        "<|"
      ],
      [
        "Ġ",
        "\""
      ],
      [
        "o",
        "n"
      ],
      [
        "h",
        "e"
      ],
      [
        "t",
        "i"
      ],
      [
        "Ġt",
        "o"
      ],
      [
        "l",
        "e"
      ],
      [
        "Ġ",
        "m"
      ],
      [
        "l",
        "l"
      ],
      [
        "Ġ",
        "f"
      ],
      [
        "i",
        "c"
      ],
      [
        "o",
        "ut"
      ],
      [
        "en",
        "d"
      ],
      [
        "p",
        "l"
      ],
      [
        "out",
        "put"
      ],
      [
        "i",
        "t"
      ],
      [
        "o",
        "u"
      ],
      [
        "r",
        "e"
      ],
      [
        "in",
        "put"
      ],
      [
        "ti",
        "on"
      ],
      [
        "i",
        "s"
      ],
      [
        "o",
        "r"
      ],
      [
        "a",
        "tion"
      ],
      [
        "Ġ",
        "d"
      ],
      [
        "t",
        "e"
      ],
      [
        "ic",
        "ation"
      ],
      [
        "m",
        "e"
      ],
      [
        "Ġ",
        "n"
      ],
      [
        "e",
        "t"
      ],
      [
        "Ġ",
        "c"
      ],
      [
        "r",
        "i"
      ],
      [
        "Ġ",
        "w"
      ],
      [
        "o",
        "l"
      ],
      [
        "e",
        "s"
      ],
      [
        "a",
        "y"
      ],
      [
        "S",
        "S"
      ],
      [
        "P",
        "A"
      ],
      [
        "T",
        "O"
      ],
      [
        "U",
        "D"
      ],
      [
        "C",
        "L"
      ],
      [
        "O",
        "UD"
      ],
      [
        "PA",
        "SS"
      ],
      [
        "CL",
        "OUD"
      ],
      [
        "Ġt",
        "he"
      ],
      [
        "Ġ",
        "p"
      ],
      [
        "Ġa",
        "p"
      ],
      [
        "Ġs",
        "c"
      ],
      [
        "p",
        "t"
      ],
      [
        "i",
        "m"
      ],
      [
        "d",
        "er"
      ],
      [
        "Ġ",
        "o"
      ],
      [
        "o",
        "w"
      ],
      [
        "pl",
        "ication"
      ],
      [
        "Ġap",
        "plication"
      ],
      [
        "he",
        "ll"
      ],
      [
        "im",
        "er"
      ],
      [
        "ri",
        "pt"
      ],
      [
        "Ġs",
        "hell"
      ],
      [
        "en",
        "t"
      ],
      [
        "Ġsc",
        "ript"
      ],
      [
        "a",
        "n"
      ],
      [
        "s",
        "e"
      ],
      [
        "Ġo",
        "f"
      ],
      [
        "Ġ",
        "y"
      ],
      [
        "pl",
        "ay"
      ],
      [
        "in",
        "g"
      ],
      [
        "Ġy",
        "ou"
      ],
      [
        "Ġf",
        "or"
      ],
      [
        "Ġ",
        "v"
      ],
      [
        "Ġ",
        "h"
      ],
      [
        "u",
        "me"
      ],
      [
        "ti",
        "f"
      ],
      [
        "a",
        "r"
      ],
      [
        "Ġt",
        "e"
      ],
      [
        "ol",
        "ume"
      ],
      [
        "o",
        "tif"
      ],
      [
        "Ġv",
        "olume"
      ],
      [
        "T",
        "imer"
      ],
      [
        "Ġ",
        "PASS"
      ],
      [
        "Ġ",
        "I"
      ],
      [
        "Ġd",
        "o"
      ],
      [
        "n",
        "d"
      ],
      [
        "Ġm",
        "e"
      ],
      [
        "Ġ",
        "b"
      ],
      [
        "it",
        "h"
      ],
      [
        "Ġw",
        "ith"
      ],
      [
        "a",
        "te"
      ],
      [
        "le",
        "a"
      ],
      [
        "Ġte",
        "ll"
      ],
      [
        "Ġm",
        "in"
      ],
      [
        "Ġ",
        "re"
      ],
      [
        "Ġs",
        "et"
      ],
      [
        "lea",
        "se"
      ],
      [
        "e",
        "p"
      ],
      [
        "Ġ",
        "in"
      ],
      [
        "ol",
        "der"
      ],
      [
        "a",
        "l"
      ],
      [
        "r",
        "o"
      ],
      [
        "Ġf",
        "older"
      ],
      [
        "Ġ",
        "1"
      ],
      [
        "d",
        "o"
      ],
      [
        "a",
        "c"
      ],
      [
        "is",
        "play"
      ],
      [
        "le",
        "ep"
      ],
      [
        "otif",
        "ication"
      ],
      [
        "u",
        "s"
      ],
      [
        "Ġmin",
        "ut"
      ],
      [
        "Ġ",
        "on"
      ],
      [
        "t",
        "o"
      ],
      [
        "te",
        "ll"
      ],
      [
        "in",
        "der"
      ],
      [
        "a",
        "t"
      ],
      [
        "Ġn",
        "otification"
      ],
      [
        "Ġn",
        "e"
      ],
      [
        "s",
        "leep"
      ],
      [
        "Ġa",
        "t"
      ],
      [
        "he",
        "d"
      ],
      [
        "Ġa",
        "nd"
      ],
      [
        "u",
        "p"
      ],
      [
        "Ġm",
        "y"
      ],
      [
        "Ġt",
        "h"
      ],
      [
        "Ġ",
        "l"
      ],
      [
        "Ġt",
        "it"
      ],
      [
        "Ġtit",
        "le"
      ],
      [
        "Ġp",
        "lease"
      ],
      [
        "d",
        "isplay"
      ],
      [
        "v",
        "e"
      ],
      [
        "l",
        "d"
      ],
      [
        "0",
        "0"
      ],
      [
        "g",
        "h"
      ],
      [
        "x",
        "t"
      ],
      [
        "es",
        "s"
      ],
      [
        "q",
        "u"
      ],
      [
        "ou",
        "ld"
      ],
      [
        "Ġ",
        "e"
      ],
      [
        "Ġf",
        "in"
      ],
      [
        "Ġ",
        "P"
      ],
      [
        "u",
        "m"
      ],
      [
        "Ġf",
        "i"
      ],
      [
        "ent",
        "s"
      ],
      [
        "e",
        "c"
      ],
      [
        "gh",
        "t"
      ],
      [
        "Ġ",
        "3"
      ],
      [
        "u",
        "r"
      ],
      [
        "Ġ",
        "-"
      ],
      [
        "Ġfin",
        "is"
      ],
      [
        "Ġt",
        "imer"
      ],
      [
        "s",
        "et"
      ],
      [
        "us",
        "ic"
      ],
      [
        "Ġ",
        "S"
      ],
      [
        "Ġfinis",
        "hed"
      ],
      [
        "F",
        "inder"
      ],
      [
        "d",
        "e"
      ],
      [
        "Ġ",
        "qu"
      ],
      [
        "to",
        "p"
      ],
      [
        "o",
        "c"
      ],
      [
        "a",
        "d"
      ],
      [
        "Ġminut",
        "e"
      ],
      [
        "s",
        "t"
      ],
      [
        "Ġ",
        "D"
      ],
      [
        "o",
        "m"
      ],
      [
        "e",
        "d"
      ],
      [
        "ow",
        "n"
      ],
      [
        "es",
        "k"
      ],
      [
        "Ġ",
        "2"
      ],
      [
        "d",
        "ay"
      ],
      [
        "o",
        "me"
      ],
      [
        "esk",
        "top"
      ],
      [
        "h",
        "o"
      ],
      [
        "Ġ",
        "M"
      ],
      [
        "p",
        "en"
      ],
      [
        "a",
        "me"
      ],
      [
        "Ġ",
        "C"
      ],
      [
        "ac",
        "k"
      ],
      [
        "i",
        "l"
      ],
      [
        "ri",
        "ght"
      ],
      [
        "Ġ",
        "up"
      ],
      [
        "k",
        "e"
      ],
      [
        "Ġfi",
        "le"
      ],
      [
        "Ġ",
        "play"
      ],
      [
        "Ġt",
        "r"
      ],
      [
        "ou",
        "r"
      ],
      [
        "um",
        "ents"
      ],
      [
        "is",
        "t"
      ],
      [
        "ar",
        "t"
      ],
      [
        "Ġc",
        "an"
      ],
      [
        "oc",
        "uments"
      ],
      [
        "M",
        "usic"
      ],
      [
        "Ġs",
        "t"
      ],
      [
        "Ġm",
        "o"
      ],
      [
        "'",
        "s"
      ],
      [
        "c",
        "h"
      ],
      [
        "Ġh",
        "ome"
      ],
      [
        "y",
        "s"
      ],
      [
        "Ġ",
        "g"
      ],
      [
        "Ġ",
        "it"
      ],
      [
        "Ġa",
        "c"
      ],
      [
        "Ġqu",
        "it"
      ],
      [
        "Ġth",
        "is"
      ],
      [
        "or",
        "t"
      ],
      [
        "Ġ",
        "output"
      ],
      [
        "ti",
        "v"
      ],
      [
        "Ġ",
        "A"
      ],
      [
        "Ġh",
        "our"
      ],
      [
        "a",
        "g"
      ],
      [
        "i",
        "me"
      ],
      [
        "Ġ3",
        "0"
      ],
      [
        "or",
        "k"
      ],
      [
        "te",
        "m"
      ],
      [
        "Ġ",
        "4"
      ],
      [
        "ys",
        "tem"
      ],
      [
        "f",
        "t"
      ],
      [
        "Ġo",
        "pen"
      ],
      [
        "tiv",
        "ate"
      ],
      [
        "Ġminut",
        "es"
      ],
      [
        "Ġne",
        "xt"
      ],
      [
        "Ġac",
        "tivate"
      ],
      [
        "Ġw",
        "h"
      ],
      [
        "m",
        "in"
      ],
      [
        "a",
        "s"
      ],
      [
        "Ġne",
        "ed"
      ],
      [
        "Ġ",
        "'"
      ],
      [
        "c",
        "e"
      ],
      [
        "l",
        "o"
      ],
      [
        "Ġn",
        "ow"
      ],
      [
        "Ġs",
        "h"
      ],
      [
        "a",
        "m"
      ],
      [
        "ic",
        "k"
      ],
      [
        "u",
        "n"
      ],
      [
        "o",
        "te"
      ],
      [
        "Ġ",
        "9"
      ],
      [
        "a",
        "ll"
      ],
      [
        "Ġp",
        "ro"
      ],
      [
        "n",
        "ess"
      ],
      [
        "ec",
        "t"
      ],
      [
        "right",
        "ness"
      ],
      [
        "c",
        "ent"
      ],
      [
        "otif",
        "y"
      ],
      [
        "an",
        "t"
      ],
      [
        "d",
        "d"
      ],
      [
        "re",
        "ate"
      ],
      [
        "v",
        "i"
      ],
      [
        "a",
        "il"
      ],
      [
        "Ġa",
        "n"
      ],
      [
        "r",
        "ow"
      ],
      [
        "t",
        "h"
      ],
      [
        "m",
        "or"
      ],
      [
        "Ġ",
        "is"
      ],
      [
        "p",
        "otify"
      ],
      [
        "Ġ",
        "T"
      ],
      [
        "Ġp",
        "er"
      ],
      [
        "p",
        "ort"
      ],
      [
        "m",
        "inder"
      ],
      [
        "j",
        "ect"
      ],
      [
        "i",
        "r"
      ],
      [
        "Ġ",
        "5"
      ],
      [
        "n",
        "t"
      ],
      [
        "a",
        "ke"
      ],
      [
        "b",
        "le"
      ],
      [
        "Ġap",
        "p"
      ],
      [
        "mor",
        "row"
      ],
      [
        "Ġto",
        "morrow"
      ],
      [
        "o",
        "o"
      ],
      [
        "Ġst",
        "art"
      ],
      [
        "Ġ",
        "E"
      ],
      [
        "T",
        "ime"
      ],
      [
        "ur",
        "n"
      ],
      [
        "v",
        "er"
      ],
      [
        "re",
        "en"
      ],
      [
        "ou",
        "nd"
      ],
      [
        "Ġd",
        "esktop"
      ],
      [
        "ou",
        "nt"
      ],
      [
        "Ġw",
        "ant"
      ],
      [
        "re",
        "s"
      ],
      [
        "Ġn",
        "ame"
      ],
      [
        "Ġc",
        "on"
      ],
      [
        "D",
        "ocuments"
      ],
      [
        "Ġper",
        "cent"
      ],
      [
        "ur",
        "r"
      ],
      [
        "Ġ",
        "en"
      ],
      [
        "Ġ",
        "he"
      ],
      [
        "Ġ",
        "F"
      ],
      [
        "'",
        "m"
      ],
      [
        "Ġa",
        "b"
      ],
      [
        "u",
        "e"
      ],
      [
        "l",
        "y"
      ],
      [
        "min",
        "d"
      ],
      [
        "e",
        "e"
      ],
      [
        "Ġab",
        "out"
      ],
      [
        "Ġ",
        "W"
      ],
      [
        "urr",
        "ent"
      ],
      [
        "Ġ",
        "("
      ],
      [
        "a",
        "u"
      ],
      [
        "c",
        "k"
      ],
      [
        "e",
        "w"
      ],
      [
        "\\",
        "\""
      ],
      [
        "on",
        "d"
      ],
      [
        "ar",
        "k"
      ],
      [
        "Ġof",
        "f"
      ],
      [
        "Ġc",
        "ould"
      ],
      [
        "ro",
        "m"
      ],
      [
        "p",
        "le"
      ],
      [
        "i",
        "p"
      ],
      [
        "Ġc",
        "al"
      ],
      [
        "Ġc",
        "om"
      ],
      [
        "Ġs",
        "ec"
      ],
      [
        "hed",
        "u"
      ],
      [
        "a",
        "ble"
      ],
      [
        "Ġf",
        "rom"
      ],
      [
        "ow",
        "er"
      ],
      [
        "hedu",
        "le"
      ],
      [
        "Ġ",
        "7"
      ],
      [
        "he",
        "ck"
      ],
      [
        "s",
        "i"
      ],
      [
        "Ġ",
        "~"
      ],
      [
        "ag",
        "e"
      ],
      [
        "Ġtr",
        "ack"
      ],
      [
        "ad",
        "s"
      ],
      [
        "Ġ~",
        "/"
      ],
      [
        "S",
        "ystem"
      ],
      [
        "Ġ1",
        "0"
      ],
      [
        "f",
        "f"
      ],
      [
        "p",
        "lease"
      ],
      [
        "Ġe",
        "m"
      ],
      [
        "Ġsec",
        "ond"
      ],
      [
        "ĠP",
        "M"
      ],
      [
        "own",
        "lo"
      ],
      [
        "Ġmo",
        "de"
      ],
      [
        "it",
        "e"
      ],
      [
        "le",
        "d"
      ],
      [
        "et",
        "w"
      ],
      [
        "Ġ1",
        "5"
      ],
      [
        "ĠD",
        "ocuments"
      ],
      [
        "n",
        "ing"
      ],
      [
        "ote",
        "s"
      ],
      [
        "c",
        "t"
      ],
      [
        "Ġ",
        "8"
      ],
      [
        "Ġc",
        "urrent"
      ],
      [
        "l",
        "ist"
      ],
      [
        "d",
        "own"
      ],
      [
        "v",
        "ents"
      ],
      [
        "i",
        "f"
      ],
      [
        "Ġ",
        "r"
      ],
      [
        "ount",
        "down"
      ],
      [
        "2",
        "0"
      ],
      [
        "ownlo",
        "ads"
      ],
      [
        "ĠM",
        "on"
      ],
      [
        "et",
        "ing"
      ],
      [
        "ro",
        "ject"
      ],
      [
        "Ġc",
        "heck"
      ],
      [
        "Ġre",
        "minder"
      ],
      [
        "Ġne",
        "w"
      ],
      [
        "Ġ",
        "6"
      ],
      [
        "Ġs",
        "ound"
      ],
      [
        "ĠE",
        "vents"
      ],
      [
        "etw",
        "ork"
      ],
      [
        "h",
        "at"
      ],
      [
        "b",
        "rightness"
      ],
      [
        "Ġm",
        "ac"
      ],
      [
        "Ġp",
        "re"
      ],
      [
        "Ġem",
        "ail"
      ],
      [
        "Ġd",
        "ark"
      ],
      [
        "e",
        "m"
      ],
      [
        "Ġ",
        "0"
      ],
      [
        "i",
        "ght"
      ],
      [
        "i",
        "le"
      ],
      [
        "3",
        "0"
      ],
      [
        "Ġa",
        "ll"
      ],
      [
        "Ġs",
        "o"
      ],
      [
        "a",
        "ve"
      ],
      [
        "Ġ4",
        "5"
      ],
      [
        "vi",
        "ew"
      ],
      [
        "on",
        "g"
      ],
      [
        "Ġc",
        "all"
      ],
      [
        "Ġd",
        "own"
      ],
      [
        "i",
        "ll"
      ],
      [
        "a",
        "in"
      ],
      [
        "Ġm",
        "usic"
      ],
      [
        "ft",
        "er"
      ],
      [
        "Ġsc",
        "reen"
      ],
      [
        "c",
        "om"
      ],
      [
        "Ġ",
        "{"
      ],
      [
        "Ġa",
        "fter"
      ],
      [
        "n",
        "ame"
      ],
      [
        "Ġb",
        "e"
      ],
      [
        "t",
        "xt"
      ],
      [
        "Ġn",
        "o"
      ],
      [
        "c",
        "an"
      ],
      [
        "Ġth",
        "at"
      ],
      [
        "t",
        "er"
      ],
      [
        "a",
        "p"
      ],
      [
        "c",
        "hedule"
      ],
      [
        "Ġ",
        "R"
      ],
      [
        "Ġd",
        "isplay"
      ],
      [
        "Ġplay",
        "list"
      ],
      [
        "Ġg",
        "et"
      ],
      [
        "d",
        "f"
      ],
      [
        "Ġcal",
        "led"
      ],
      [
        "Ġm",
        "ess"
      ],
      [
        "p",
        "e"
      ],
      [
        "ver",
        "y"
      ],
      [
        "ĠD",
        "esktop"
      ],
      [
        "Ġqu",
        "ick"
      ],
      [
        "ee",
        "k"
      ],
      [
        "in",
        "e"
      ],
      [
        "Ġd",
        "ay"
      ],
      [
        "s",
        "ho"
      ],
      [
        "u",
        "re"
      ],
      [
        "ho",
        "to"
      ],
      [
        "c",
        "ould"
      ],
      [
        "Ġs",
        "end"
      ],
      [
        "au",
        "se"
      ],
      [
        "an",
        "d"
      ],
      [
        "u",
        "d"
      ],
      [
        "Ġc",
        "ountdown"
      ],
      [
        "S",
        "potify"
      ],
      [
        "Ġd",
        "on"
      ],
      [
        "Ġ",
        "k"
      ],
      [
        "Ġw",
        "ould"
      ],
      [
        "Ġ2",
        "0"
      ],
      [
        "ĠMon",
        "day"
      ],
      [
        "f",
        "er"
      ],
      [
        "ĠA",
        "M"
      ],
      [
        "f",
        "o"
      ],
      [
        "g",
        "et"
      ],
      [
        "Ġw",
        "eek"
      ],
      [
        "l",
        "i"
      ],
      [
        "Ġ",
        "right"
      ],
      [
        "u",
        "ff"
      ],
      [
        "Ġ",
        "us"
      ],
      [
        "an",
        "ce"
      ],
      [
        "Ġtr",
        "ue"
      ],
      [
        "Ġl",
        "ist"
      ],
      [
        "Ġre",
        "mind"
      ],
      [
        "Ġt",
        "urn"
      ],
      [
        "ĠS",
        "potify"
      ],
      [
        "t",
        "y"
      ],
      [
        "er",
        "s"
      ],
      [
        "Ġa",
        "dd"
      ],
      [
        "r",
        "ite"
      ],
      [
        "Ġb",
        "rightness"
      ],
      [
        "Ġm",
        "ake"
      ],
      [
        "ag",
        "es"
      ],
      [
        "fer",
        "en"
      ],
      [
        "Ġw",
        "ork"
      ],
      [
        "on",
        "t"
      ],
      [
        "Ġ",
        "|"
      ],
      [
        "Ġa",
        "r"
      ],
      [
        "Ġcon",
        "t"
      ],
      [
        "Ġ9",
        "0"
      ],
      [
        "Ġsh",
        "uff"
      ],
      [
        "n",
        "etwork"
      ],
      [
        "p",
        "df"
      ],
      [
        "Ġmo",
        "ve"
      ],
      [
        "in",
        "t"
      ],
      [
        "c",
        "es"
      ],
      [
        "Ġa",
        "re"
      ],
      [
        "p",
        "ower"
      ],
      [
        "Ġs",
        "ong"
      ],
      [
        "Ġf",
        "al"
      ],
      [
        "Ġfal",
        "se"
      ],
      [
        "D",
        "esktop"
      ],
      [
        "Q",
        "u"
      ],
      [
        "Ġme",
        "eting"
      ],
      [
        "o",
        "de"
      ],
      [
        "Ġto",
        "day"
      ],
      [
        "Ġa",
        "s"
      ],
      [
[...]
